<unk>	0
<s>	0
</s>	0
▁п	-0
ст	-1
▁в	-2
▁с	-3
ен	-4
ов	-5
ра	-6
на	-7
▁о	-8
ре	-9
то	-10
▁и	-11
ко	-12
ро	-13
ли	-14
но	-15
го	-16
ни	-17
▁по	-18
ет	-19
▁д	-20
ка	-21
ла	-22
▁на	-23
ер	-24
ны	-25
за	-26
ль	-27
не	-28
ри	-29
▁м	-30
та	-31
те	-32
да	-33
ени	-34
▁ч	-35
ле	-36
ки	-37
▁б	-38
ва	-39
ло	-40
▁у	-41
ти	-42
ть	-43
сс	-44
▁за	-45
ся	-46
▁ко	-47
▁«	-48
ова	-49
ци	-50
ми	-51
ру	-52
ви	-53
▁не	-54
▁со	-55
▁а	-56
▁про	-57
во	-58
ста	-59
▁ра	-60
ди	-61
▁что	-62
▁П	-63
▁э	-64
▁В	-65
ма	-66
▁го	-67
ско	-68
сти	-69
▁об	-70
ля	-71
▁до	-72
де	-73
▁от	-74
ем	-75
▁к	-76
сси	-77
▁Р	-78
▁С	-79
▁пре	-80
▁при	-81
ду	-82
мо	-83
ры	-84
ски	-85
чи	-86
▁ре	-87
ово	-88
по	-89
▁из	-90
▁г	-91
▁т	-92
▁О	-93
▁е	-94
об	-95
▁К	-96
сто	-97
па	-98
ча	-99
ения	-100
▁де	-101
▁—	-102
▁во	-103
ве	-104
▁2	-105
же	-106
▁"	-107
ных	-108
▁М	-109
▁вы	-110
сь	-111
че	-112
жи	-113
ку	-114
га	-115
том	-116
тель	-117
ну	-118
ент	-119
ной	-120
хо	-121
ей	-122
ги	-123
ере	-124
бо	-125
▁ка	-126
▁По	-127
лу	-128
зи	-129
щи	-130
▁1	-131
ши	-132
ан	-133
ров	-134
до	-135
ции	-136
ря	-137
се	-138
ного	-139
▁бы	-140
▁Ро	-141
▁ф	-142
ение	-143
ств	-144
ют	-145
▁Т	-146
▁20	-147
пи	-148
▁кото	-149
ме	-150
▁ро	-151
нов	-152
▁та	-153
стра	-154
▁под	-155
▁мо	-156
ные	-157
кра	-158
▁Росси	-159
»,	-160
ше	-161
▁Д	-162
си	-163
мен	-164
ков	-165
▁то	-166
▁ста	-167
▁А	-168
ный	-169
сть	-170
жа	-171
ту	-172
ня	-173
▁ме	-174
▁ми	-175
лен	-176
каза	-177
▁сооб	-178
▁Н	-179
са	-180
ется	-181
ща	-182
».	-183
он	-184
▁раз	-185
рова	-186
ке	-187
би	-188
ар	-189
▁(	-190
▁У	-191
ор	-192
пу	-193
▁те	-194
ты	-195
ек	-196
▁года	-197
▁пред	-198
му	-199
лов	-200
▁са	-201
сле	-202
▁пере	-203
краи	-204
ской	-205
лей	-206
ще	-207
ния	-208
▁ин	-209
ери	-210
▁бо	-211
лет	-212
лю	-213
▁этом	-214
про	-215
▁России	-216
ным	-217
▁его	-218
."	-219
ак	-220
▁ли	-221
▁ком	-222
▁росси	-223
▁Г	-224
це	-225
пе	-226
ства	-227
ние	-228
▁Б	-229
▁для	-230
ского	-231
ск	-232
су	-233
вер	-234
ба	-235
она	-236
▁которы	-237
бря	-238
▁это	-239
вы	-240
дер	-241
яви	-242
нии	-243
▁он	-244
▁кон	-245
▁ру	-246
▁И	-247
▁з	-248
ности	-249
лся	-250
▁но	-251
из	-252
▁так	-253
мы	-254
ска	-255
бы	-256
гра	-257
уд	-258
ствен	-259
зы	-260
ети	-261
ский	-262
▁дека	-263
гу	-264
▁Об	-265
лова	-266
▁сво	-267
ды	-268
▁стра	-269
ство	-270
▁Украи	-271
спо	-272
ских	-273
▁ма	-274
▁си	-275
▁россий	-276
сту	-277
тов	-278
ении	-279
▁воз	-280
▁Е	-281
▁декабря	-282
ден	-283
гла	-284
нее	-285
▁после	-286
▁как	-287
▁201	-288
тив	-289
рав	-290
ться	-291
▁сто	-292
▁З	-293
ез	-294
▁сообща	-295
рем	-296
ном	-297
ур	-298
гово	-299
▁расс	-300
▁я	-301
▁жи	-302
▁Л	-303
кс	-304
лись	-305
фи	-306
пре	-307
▁слова	-308
тся	-309
▁ни	-310
ность	-311
▁ве	-312
жен	-313
▁заяви	-314
▁Мо	-315
лось	-316
мер	-317
▁че	-318
бли	-319
ное	-320
▁все	-321
со	-322
▁од	-323
▁также	-324
лли	-325
es	-326
бе	-327
ву	-328
▁Ра	-329
аль	-330
ца	-331
кой	-332
▁202	-333
▁дол	-334
кт	-335
▁Ф	-336
лась	-337
стави	-338
▁прези	-339
ная	-340
чен	-341
▁году	-342
▁пра	-343
зна	-344
▁руб	-345
or	-346
▁су	-347
▁рабо	-348
▁компа	-349
▁ш	-350
ран	-351
ходи	-352
▁словам	-353
▁На	-354
▁3	-355
00	-356
ром	-357
ета	-358
ция	-359
▁ос	-360
дент	-361
ную	-362
дни	-363
▁па	-364
▁ча	-365
стви	-366
▁врем	-367
▁ди	-368
стре	-369
ющи	-370
ления	-371
ком	-372
орма	-373
▁боль	-374
рово	-375
цент	-376
зу	-377
зова	-378
жда	-379
ха	-380
цен	-381
▁ви	-382
▁хо	-383
нима	-384
▁F	-385
▁рублей	-386
ША	-387
кан	-388
▁ее	-389
▁пла	-390
▁полу	-391
ых	-392
лько	-393
стоя	-394
рен	-395
сте	-396
ред	-397
цию	-398
▁челов	-399
▁гла	-400
▁се	-401
▁США	-402
стро	-403
▁объ	-404
▁Украины	-405
ев	-406
мети	-407
вля	-408
ские	-409
▁время	-410
er	-411
▁поли	-412
жет	-413
▁ак	-414
телей	-415
ман	-416
ша	-417
руп	-418
▁милли	-419
пер	-420
нг	-421
тор	-422
▁Э	-423
▁ор	-424
вши	-425
лед	-426
гда	-427
ском	-428
▁пи	-429
дар	-430
▁дан	-431
ом	-432
ник	-433
ская	-434
▁сообщи	-435
▁пер	-436
род	-437
ений	-438
шения	-439
зыва	-440
▁T	-441
▁чи	-442
ению	-443
казал	-444
▁н	-445
ний	-446
▁обра	-447
▁заявил	-448
вя	-449
тер	-450
▁Ки	-451
ными	-452
уж	-453
шен	-454
▁Ранее	-455
зва	-456
▁Ми	-457
прав	-458
ласти	-459
▁дру	-460
▁произ	-461
▁том	-462
пы	-463
▁5	-464
при	-465
▁бу	-466
кова	-467
сы	-468
пор	-469
чита	-470
▁орга	-471
публи	-472
лее	-473
лади	-474
▁Моск	-475
ней	-476
▁которые	-477
▁тре	-478
мери	-479
лы	-480
тели	-481
ются	-482
▁гра	-483
▁их	-484
▁нача	-485
▁сообщает	-486
вет	-487
▁пу	-488
ень	-489
тра	-490
▁Он	-491
сов	-492
▁уча	-493
▁ав	-494
ству	-495
тиче	-496
▁Влади	-497
▁фи	-498
ему	-499
▁же	-500
▁4	-501
▁пров	-502
▁буд	-503
жду	-504
▁да	-505
▁отмети	-506
дин	-507
▁инф	-508
ес	-509
мерикан	-510
ят	-511
▁она	-512
▁слу	-513
тру	-514
▁чем	-515
рам	-516
логи	-517
▁ты	-518
▁того	-519
▁S	-520
▁га	-521
▁без	-522
дом	-523
вест	-524
▁который	-525
bes	-526
мит	-527
нова	-528
теля	-529
orbes	-530
дов	-531
кон	-532
▁Владими	-533
йте	-534
▁Ч	-535
льзова	-536
▁само	-537
▁чет	-538
▁которо	-539
▁Пу	-540
ниц	-541
▁лет	-542
▁будет	-543
дет	-544
ональ	-545
ление	-546
▁было	-547
лож	-548
бре	-549
ото	-550
сли	-551
нали	-552
реди	-553
▁был	-554
тори	-555
▁Со	-556
цион	-557
станов	-558
▁согла	-559
нако	-560
▁лю	-561
ника	-562
мент	-563
▁тыся	-564
).	-565
пла	-566
▁A	-567
оне	-568
▁реги	-569
▁может	-570
ску	-571
слу	-572
▁За	-573
▁Ка	-574
краин	-575
ед	-576
от	-577
лом	-578
▁пов	-579
▁сов	-580
▁испо	-581
анк	-582
ложи	-583
жно	-584
вро	-585
ций	-586
▁При	-587
трудни	-588
▁американ	-589
шли	-590
▁I	-591
коно	-592
▁более	-593
▁сторо	-594
▁президен	-595
▁пар	-596
▁нов	-597
▁процент	-598
нес	-599
судар	-600
ход	-601
▁10	-602
▁тер	-603
▁ж	-604
тин	-605
ью	-606
ян	-607
▁ры	-608
шение	-609
▁помо	-610
▁чтобы	-611
ые	-612
▁Зе	-613
▁Forbes	-614
бу	-615
рта	-616
▁им	-617
▁или	-618
▁украин	-619
яс	-620
дут	-621
▁переда	-622
пера	-623
▁компании	-624
▁M	-625
кры	-626
▁Та	-627
рти	-628
▁Ма	-629
▁вер	-630
▁получи	-631
▁государ	-632
▁человек	-633
ступ	-634
зации	-635
ским	-636
▁Х	-637
клю	-638
▁Ш	-639
▁они	-640
вать	-641
мента	-642
ге	-643
ене	-644
нил	-645
▁ки	-646
▁рас	-647
льта	-648
▁свя	-649
▁счита	-650
▁процентов	-651
рь	-652
▁вопро	-653
▁президент	-654
рд	-655
▁ба	-656
▁были	-657
нер	-658
ников	-659
▁Зелен	-660
▁этого	-661
яв	-662
▁ку	-663
ники	-664
ледова	-665
сно	-666
▁Па	-667
▁сайте	-668
▁сотрудни	-669
▁B	-670
▁представи	-671
шего	-672
ra	-673
▁между	-674
циаль	-675
▁отно	-676
гут	-677
дель	-678
лекс	-679
▁еще	-680
казыва	-681
▁Так	-682
▁биз	-683
▁исто	-684
▁данным	-685
точ	-686
стве	-687
▁органи	-688
▁только	-689
in	-690
пас	-691
дера	-692
▁президента	-693
дол	-694
держа	-695
▁приня	-696
дения	-697
▁призна	-698
али	-699
ках	-700
овой	-701
▁год	-702
▁2019	-703
▁извест	-704
▁мл	-705
зульта	-706
кта	-707
тро	-708
меча	-709
ствия	-710
▁результа	-711
▁6	-712
нию	-713
писа	-714
▁мар	-715
▁три	-716
▁авто	-717
▁назва	-718
▁х	-719
▁ква	-720
▁8	-721
ябре	-722
▁теле	-723
▁области	-724
▁дей	-725
зда	-726
▁аг	-727
),	-728
став	-729
▁Трам	-730
▁встре	-731
▁произо	-732
on	-733
▁жен	-734
▁изда	-735
ую	-736
▁9	-737
басс	-738
▁пиш	-739
ением	-740
онбасс	-741
▁R	-742
▁уже	-743
чения	-744
тери	-745
▁тех	-746
▁Донбасс	-747
щен	-748
▁Ко	-749
▁други	-750
СС	-751
сла	-752
шел	-753
▁отметил	-754
▁ва	-755
▁суд	-756
▁гово	-757
▁Во	-758
▁ле	-759
▁перегово	-760
йти	-761
▁долж	-762
▁информа	-763
▁12	-764
вести	-765
рован	-766
дей	-767
тре	-768
▁опубли	-769
▁миллиар	-770
▁груп	-771
▁W	-772
лага	-773
чение	-774
▁тысяч	-775
▁состоя	-776
▁сообщил	-777
▁опубликова	-778
чь	-779
▁ус	-780
нист	-781
ужчи	-782
▁Как	-783
▁сде	-784
le	-785
ях	-786
▁Са	-787
▁стало	-788
ких	-789
▁вз	-790
ин	-791
▁горо	-792
▁неско	-793
▁говори	-794
гов	-795
онов	-796
бер	-797
▁Ва	-798
an	-799
▁7	-800
еры	-801
кла	-802
чер	-803
▁ито	-804
▁экс	-805
тельно	-806
рая	-807
рабо	-808
▁смо	-809
▁сред	-810
▁пишет	-811
▁прави	-812
ос	-813
▁C	-814
▁ст	-815
ствова	-816
▁Алекс	-817
ый	-818
рий	-819
▁G	-820
вает	-821
▁дву	-822
▁рассказал	-823
,5	-824
АСС	-825
▁дет	-826
▁сам	-827
▁проек	-828
тия	-829
▁11	-830
▁зна	-831
▁поч	-832
▁челове	-833
рон	-834
туа	-835
стран	-836
▁оказа	-837
ева	-838
грам	-839
▁воен	-840
пол	-841
вели	-842
▁газ	-843
вод	-844
ково	-845
▁ТАСС	-846
▁свои	-847
▁лидер	-848
дра	-849
мож	-850
▁жиз	-851
▁эти	-852
▁обви	-853
ar	-854
▁пол	-855
▁соб	-856
▁P	-857
рей	-858
▁быть	-859
▁оста	-860
▁прода	-861
▁против	-862
▁страны	-863
пра	-864
▁явля	-865
▁Владимир	-866
it	-867
кие	-868
▁бе	-869
твер	-870
▁Евро	-871
▁ново	-872
лия	-873
щее	-874
ерез	-875
кана	-876
▁плани	-877
рт	-878
ному	-879
▁жур	-880
▁работа	-881
нд	-882
▁уда	-883
▁ситуа	-884
гро	-885
▁19	-886
▁це	-887
щего	-888
▁сни	-889
щения	-890
▁рын	-891
цента	-892
▁была	-893
▁день	-894
▁спор	-895
тельства	-896
уз	-897
▁D	-898
▁ис	-899
ября	-900
▁них	-901
▁меся	-902
ритори	-903
▁будут	-904
▁гражда	-905
▁Ц	-906
▁ю	-907
▁пя	-908
▁поз	-909
▁тем	-910
нитель	-911
▁процента	-912
нут	-913
бави	-914
дели	-915
▁спе	-916
▁агент	-917
▁опера	-918
▁пресс	-919
▁стран	-920
st	-921
▁N	-922
прово	-923
▁сообщалось	-924
ou	-925
кну	-926
▁ту	-927
води	-928
леду	-929
сков	-930
торы	-931
ит	-932
▁мы	-933
▁территори	-934
нет	-935
сыл	-936
▁уби	-937
▁санк	-938
▁могут	-939
▁продол	-940
▁созда	-941
▁послед	-942
фор	-943
роме	-944
▁ино	-945
▁разви	-946
бен	-947
него	-948
тора	-949
▁сем	-950
ровать	-951
▁глава	-952
▁российских	-953
▁где	-954
коло	-955
ремен	-956
▁тран	-957
▁мужчи	-958
рек	-959
▁эк	-960
манд	-961
▁2020	-962
▁виде	-963
▁возмож	-964
ун	-965
лови	-966
▁тор	-967
кономи	-968
бле	-969
шей	-970
▁особ	-971
▁пожа	-972
▁Путин	-973
al	-974
дми	-975
▁мн	-976
скую	-977
▁Это	-978
жение	-979
мости	-980
пусти	-981
▁четвер	-982
чу	-983
вой	-984
цев	-985
мени	-986
ющий	-987
▁кли	-988
▁дела	-989
▁млрд	-990
страда	-991
▁рассказа	-992
oo	-993
Ин	-994
▁обо	-995
жения	-996
▁добави	-997
en	-998
il	-999
▁два	-1000
▁если	-1001
▁Также	-1002
▁запре	-1003
ким	-1004
лим	-1005
лле	-1006
хра	-1007
держ	-1008
народ	-1009
ответ	-1010
рманд	-1011
▁женщи	-1012
▁когда	-1013
▁которая	-1014
дно	-1015
бира	-1016
вших	-1017
стов	-1018
стру	-1019
▁2024	-1020
ставля	-1021
▁однако	-1022
▁известно	-1023
чет	-1024
▁кор	-1025
шении	-1026
▁конф	-1027
▁мест	-1028
▁част	-1029
▁После	-1030
▁Ю	-1031
▁сер	-1032
▁больше	-1033
сследова	-1034
▁несколько	-1035
По	-1036
нь	-1037
цы	-1038
рах	-1039
сса	-1040
щей	-1041
▁над	-1042
▁цен	-1043
ступи	-1044
▁источ	-1045
▁пользова	-1046
емо	-1047
рой	-1048
час	-1049
▁Од	-1050
тных	-1051
▁инте	-1052
▁россиян	-1053
пло	-1054
▁Ин	-1055
▁Гер	-1056
вшего	-1057
едера	-1058
▁самы	-1059
▁случа	-1060
▁увели	-1061
▁участ	-1062
циональ	-1063
▁кра	-1064
ейчас	-1065
▁подо	-1066
▁попа	-1067
▁прове	-1068
норманд	-1069
▁Зеленский	-1070
ющих	-1071
▁уров	-1072
▁Кроме	-1073
▁проду	-1074
▁стать	-1075
▁управ	-1076
▁отмеча	-1077
▁подчер	-1078
▁програм	-1079
ена	-1080
нем	-1081
ших	-1082
▁круп	-1083
▁необ	-1084
▁цент	-1085
▁сдела	-1086
▁передает	-1087
he	-1088
зе	-1089
кту	-1090
кого	-1091
проек	-1092
▁право	-1093
▁форма	-1094
▁полити	-1095
▁Алексан	-1096
▁планиру	-1097
Ро	-1098
ым	-1099
сло	-1100
тен	-1101
тки	-1102
три	-1103
льно	-1104
опас	-1105
грани	-1106
▁один	-1107
▁ребен	-1108
▁предпо	-1109
▁журнали	-1110
▁Донбассе	-1111
et	-1112
На	-1113
▁📸	-1114
стей	-1115
▁апре	-1116
▁поги	-1117
▁бизнес	-1118
▁решение	-1119
▁экономи	-1120
▁является	-1121
ram	-1122
чно	-1123
▁вой	-1124
▁пло	-1125
▁пос	-1126
▁Ново	-1127
▁прод	-1128
▁ссыл	-1129
▁следу	-1130
▁российского	-1131
хи	-1132
вые	-1133
▁Бе	-1134
▁Ви	-1135
ское	-1136
▁вос	-1137
▁него	-1138
▁пока	-1139
▁стро	-1140
▁которых	-1141
▁пострада	-1142
ья	-1143
▁Я	-1144
рия	-1145
ске	-1146
чки	-1147
▁Бо	-1148
▁📸:	-1149
▁вла	-1150
▁двух	-1151
▁четы	-1152
нан	-1153
нец	-1154
▁му	-1155
бова	-1156
▁Сер	-1157
▁обла	-1158
▁конфли	-1159
бра	-1160
▁До	-1161
▁бан	-1162
▁рай	-1163
мость	-1164
▁Фото	-1165
▁есть	-1166
▁обсу	-1167
▁установ	-1168
ряд	-1169
пита	-1170
чество	-1171
▁около	-1172
▁догово	-1173
▁матери	-1174
▁сказал	-1175
▁участи	-1176
▁ссылкой	-1177
▁стороны	-1178
фе	-1179
вед	-1180
гам	-1181
рии	-1182
там	-1183
▁15	-1184
▁ше	-1185
gram	-1186
седа	-1187
▁Его	-1188
▁Она	-1189
▁име	-1190
▁эле	-1191
нистра	-1192
▁контро	-1193
▁руково	-1194
ут	-1195
виа	-1196
▁вто	-1197
льный	-1198
▁деся	-1199
▁доку	-1200
▁Герма	-1201
▁через	-1202
▁пробле	-1203
▁результате	-1204
год	-1205
нице	-1206
пута	-1207
▁Мин	-1208
▁глав	-1209
▁прош	-1210
▁самми	-1211
▁числе	-1212
▁человека	-1213
▁подчеркну	-1214
▁ию	-1215
жива	-1216
ровал	-1217
щение	-1218
▁всех	-1219
ностью	-1220
▁позво	-1221
▁ранее	-1222
▁находи	-1223
яза	-1224
ками	-1225
▁уточ	-1226
▁чемпи	-1227
кре	-1228
▁От	-1229
тить	-1230
етров	-1231
зидент	-1232
▁Москве	-1233
лены	-1234
▁Дмит	-1235
▁стал	-1236
▁много	-1237
▁кварти	-1238
▁необходи	-1239
▁использова	-1240
луч	-1241
▁13	-1242
вший	-1243
▁кри	-1244
▁спи	-1245
нения	-1246
▁долла	-1247
▁четыре	-1248
тельство	-1249
▁ему	-1250
▁офи	-1251
▁2018	-1252
▁авиа	-1253
▁Однако	-1254
▁власти	-1255
▁экспер	-1256
▁иностран	-1257
DA	-1258
▁Ж	-1259
▁То	-1260
ссий	-1261
▁Пер	-1262
▁рес	-1263
ступа	-1264
▁заяв	-1265
▁реши	-1266
▁ходе	-1267
▁жизни	-1268
▁причи	-1269
▁региона	-1270
вле	-1271
нти	-1272
▁окт	-1273
▁фото	-1274
▁энер	-1275
▁своей	-1276
▁занима	-1277
▁Украине	-1278
-2	-1279
ac	-1280
▁$	-1281
дова	-1282
лаго	-1283
нием	-1284
сова	-1285
▁прав	-1286
нологи	-1287
ческой	-1288
▁ведом	-1289
▁появи	-1290
▁связа	-1291
▁города	-1292
▁исследова	-1293
ter	-1294
ляр	-1295
соб	-1296
▁Ла	-1297
▁ар	-1298
ницу	-1299
чень	-1300
▁вне	-1301
прави	-1302
▁меди	-1303
▁насе	-1304
▁сист	-1305
▁перед	-1306
▁соответ	-1307
▁республи	-1308
дь	-1309
ружи	-1310
тому	-1311
▁спо	-1312
льной	-1313
нистр	-1314
строй	-1315
▁всего	-1316
ic	-1317
бя	-1318
вуш	-1319
▁25	-1320
▁Си	-1321
роны	-1322
ссии	-1323
цией	-1324
▁Пари	-1325
▁свою	-1326
▁испол	-1327
▁ответ	-1328
▁мнению	-1329
▁L	-1330
ADA	-1331
вра	-1332
вали	-1333
▁нет	-1334
▁дома	-1335
▁комп	-1336
▁нару	-1337
▁сент	-1338
фак	-1339
▁бли	-1340
▁вме	-1341
▁вра	-1342
▁сро	-1343
▁дирек	-1344
▁комит	-1345
▁прово	-1346
▁Россия	-1347
вом	-1348
сты	-1349
щий	-1350
▁вс	-1351
▁Под	-1352
лимпи	-1353
▁трех	-1354
льного	-1355
▁настоя	-1356
ub	-1357
жды	-1358
жида	-1359
пыта	-1360
▁Все	-1361
▁ско	-1362
ческих	-1363
▁место	-1364
▁помощ	-1365
▁итогам	-1366
ственного	-1367
▁государства	-1368
тя	-1369
нва	-1370
моби	-1371
чных	-1372
▁выбо	-1373
▁янва	-1374
работа	-1375
▁готов	-1376
▁марта	-1377
▁ситуации	-1378
жд	-1379
шо	-1380
▁Y	-1381
няя	-1382
пом	-1383
роб	-1384
тай	-1385
ток	-1386
цени	-1387
▁дея	-1388
▁шко	-1389
▁мира	-1390
▁законо	-1391
▁издание	-1392
▁увеличи	-1393
▁компаний	-1394
вый	-1395
кет	-1396
▁ну	-1397
ницы	-1398
ющие	-1399
шений	-1400
▁свое	-1401
▁обяза	-1402
▁пошли	-1403
▁Париже	-1404
▁вопрос	-1405
▁ограни	-1406
▁которой	-1407
▁предпри	-1408
▁предложи	-1409
нах	-1410
▁Ба	-1411
чной	-1412
▁высо	-1413
▁заклю	-1414
▁откры	-1415
▁безопас	-1416
▁считает	-1417
▁Германии	-1418
ель	-1419
кое	-1420
ору	-1421
тии	-1422
▁би	-1423
лого	-1424
рева	-1425
▁рам	-1426
графи	-1427
▁Пути	-1428
▁себя	-1429
▁убий	-1430
▁финан	-1431
▁элект	-1432
▁граждан	-1433
..	-1434
мот	-1435
шла	-1436
▁неф	-1437
Интер	-1438
▁став	-1439
▁площа	-1440
▁проце	-1441
▁Москвы	-1442
▁прекра	-1443
▁сообщили	-1444
▁международ	-1445
at	-1446
ерт	-1447
рил	-1448
▁пун	-1449
▁уго	-1450
▁обна	-1451
лирова	-1452
▁основ	-1453
▁подоз	-1454
▁говорится	-1455
▁частности	-1456
ИА	-1457
ье	-1458
▁/	-1459
вое	-1460
той	-1461
циа	-1462
▁ней	-1463
▁оче	-1464
▁тра	-1465
▁прои	-1466
▁измен	-1467
▁людей	-1468
▁апреля	-1469
▁продук	-1470
▁сейчас	-1471
Интерфак	-1472
▁деятель	-1473
▁компания	-1474
▁конфликта	-1475
▁миллионов	-1476
зо	-1477
шие	-1478
▁гу	-1479
нгто	-1480
нили	-1481
▁сери	-1482
вается	-1483
ровали	-1484
▁видео	-1485
▁задержа	-1486
▁оп	-1487
нике	-1488
рита	-1489
▁сек	-1490
▁тру	-1491
▁коли	-1492
▁реко	-1493
▁смер	-1494
ждения	-1495
▁основа	-1496
▁рамках	-1497
▁Александ	-1498
▁технологи	-1499
ro	-1500
▁E	-1501
▁30	-1502
ница	-1503
служ	-1504
▁фак	-1505
плома	-1506
яснил	-1507
▁дево	-1508
▁идет	-1509
▁моло	-1510
шингто	-1511
▁актив	-1512
▁верси	-1513
▁Трампа	-1514
резидент	-1515
▁долларов	-1516
▁собствен	-1517
ню	-1518
над	-1519
▁The	-1520
▁луч	-1521
конча	-1522
лении	-1523
льных	-1524
щении	-1525
летний	-1526
▁реали	-1527
▁других	-1528
▁добавил	-1529
фа	-1530
▁@	-1531
рую	-1532
▁Ме	-1533
▁пы	-1534
писал	-1535
▁неко	-1536
▁публи	-1537
▁стату	-1538
▁продолжа	-1539
▁организации	-1540
тс	-1541
гой	-1542
кий	-1543
лон	-1544
тие	-1545
▁Дж	-1546
чные	-1547
▁Кон	-1548
▁Куз	-1549
готов	-1550
▁Фран	-1551
▁зако	-1552
▁пози	-1553
▁бизне	-1554
▁оцени	-1555
▁погиб	-1556
▁показа	-1557
▁организа	-1558
▁рассказала	-1559
▁рассказыва	-1560
▁H	-1561
зов	-1562
▁In	-1563
▁Луж	-1564
ходит	-1565
▁выра	-1566
▁защи	-1567
▁пода	-1568
▁стои	-1569
гласно	-1570
▁потре	-1571
ческого	-1572
▁Россий	-1573
бур	-1574
шед	-1575
▁Не	-1576
лена	-1577
▁РИА	-1578
мести	-1579
чного	-1580
▁анти	-1581
▁повы	-1582
▁внима	-1583
▁коман	-1584
▁должны	-1585
▁состави	-1586
ВД	-1587
лем	-1588
мой	-1589
рал	-1590
рев	-1591
▁2025	-1592
▁роди	-1593
▁девуш	-1594
▁дости	-1595
▁новых	-1596
▁стали	-1597
▁обрати	-1598
гулирова	-1599
ям	-1600
ены	-1601
лан	-1602
лог	-1603
шем	-1604
шин	-1605
▁Te	-1606
охра	-1607
▁мен	-1608
▁вклю	-1609
▁заня	-1610
▁поку	-1611
▁этот	-1612
▁часть	-1613
▁момент	-1614
▁объяви	-1615
▁Новости	-1616
▁заявили	-1617
Интерфакс	-1618
▁информации	-1619
el	-1620
ail	-1621
ган	-1622
ить	-1623
мон	-1624
шая	-1625
хода	-1626
▁мог	-1627
▁доро	-1628
▁угро	-1629
▁креди	-1630
▁почти	-1631
▁утвер	-1632
▁саммита	-1633
▁соглашения	-1634
▁территории	-1635
is	-1636
мов	-1637
пад	-1638
щем	-1639
▁Де	-1640
дили	-1641
енты	-1642
еров	-1643
нами	-1644
▁Гла	-1645
льные	-1646
скими	-1647
сколь	-1648
▁кана	-1649
▁умер	-1650
▁конце	-1651
▁связи	-1652
▁среди	-1653
▁услови	-1654
ed	-1655
ете	-1656
кру	-1657
лай	-1658
мыш	-1659
оло	-1660
тем	-1661
чка	-1662
▁Из	-1663
▁Ре	-1664
жден	-1665
ссия	-1666
това	-1667
▁дви	-1668
▁мин	-1669
▁уре	-1670
▁выро	-1671
▁пыта	-1672
▁главы	-1673
▁автомоби	-1674
▁миллиона	-1675
аг	-1676
зя	-1677
цу	-1678
дви	-1679
сит	-1680
▁Ар	-1681
▁Ни	-1682
▁ци	-1683
вают	-1684
чный	-1685
▁Пред	-1686
▁побе	-1687
скольку	-1688
▁назвал	-1689
▁систем	-1690
▁стране	-1691
▁диплома	-1692
▁поддерж	-1693
▁Вашингто	-1694
▁отношении	-1695
▁подчеркнул	-1696
кам	-1697
щих	-1698
вого	-1699
евра	-1700
мина	-1701
▁кто	-1702
▁нау	-1703
▁нео	-1704
скому	-1705
торов	-1706
тсмен	-1707
▁наде	-1708
▁обще	-1709
▁завер	-1710
▁интер	-1711
▁совер	-1712
▁стала	-1713
▁торгов	-1714
▁заявила	-1715
▁которого	-1716
▁Александр	-1717
нок	-1718
хов	-1719
ший	-1720
щая	-1721
▁14	-1722
▁ри	-1723
обра	-1724
ходя	-1725
▁фор	-1726
ствие	-1727
▁этой	-1728
▁анали	-1729
▁одной	-1730
▁преду	-1731
▁инвести	-1732
▁Владимира	-1733
вых	-1734
▁ги	-1735
▁ей	-1736
лено	-1737
▁авгу	-1738
мышлен	-1739
▁возра	-1740
▁ожида	-1741
▁столи	-1742
▁Россию	-1743
▁ноября	-1744
▁которое	-1745
▁самолет	-1746
▁политиче	-1747
▁телекана	-1748
ma	-1749
ил	-1750
мя	-1751
▁•	-1752
ber	-1753
воз	-1754
зом	-1755
▁бю	-1756
▁ог	-1757
декс	-1758
▁иск	-1759
▁фон	-1760
проси	-1761
▁сети	-1762
▁слож	-1763
▁проис	-1764
▁распо	-1765
▁февра	-1766
▁времен	-1767
▁ноябре	-1768
▁провед	-1769
▁считают	-1770
▁Согласно	-1771
▁агентства	-1772
▁сообщается	-1773
▁переговоров	-1774
▁урегулирова	-1775
▁государствен	-1776
шь	-1777
дии	-1778
зии	-1779
нге	-1780
рес	-1781
сут	-1782
чил	-1783
▁18	-1784
▁аэ	-1785
▁уни	-1786
▁даже	-1787
дитель	-1788
▁верну	-1789
▁объек	-1790
▁части	-1791
чествен	-1792
▁работы	-1793
▁россия	-1794
▁ребенка	-1795
дминистра	-1796
▁действия	-1797
лит	-1798
▁пе	-1799
еспе	-1800
лимпий	-1801
ритель	-1802
шенных	-1803
▁закон	-1804
▁можно	-1805
▁рейти	-1806
▁контра	-1807
▁тысячи	-1808
▁уголов	-1809
ствовать	-1810
▁Дмитрий	-1811
▁преступ	-1812
▁санкции	-1813
▁подготов	-1814
▁поскольку	-1815
▁спортсмен	-1816
вал	-1817
еха	-1818
▁16	-1819
▁Га	-1820
▁Да	-1821
▁ло	-1822
етер	-1823
стри	-1824
▁колле	-1825
▁направ	-1826
▁провер	-1827
▁котором	-1828
▁материа	-1829
▁подтвер	-1830
▁произошел	-1831
▁российский	-1832
фф	-1833
бой	-1834
дил	-1835
тий	-1836
▁Ве	-1837
▁Че	-1838
акси	-1839
част	-1840
чить	-1841
▁500	-1842
▁Анд	-1843
▁сре	-1844
▁упа	-1845
весто	-1846
▁Tele	-1847
▁даль	-1848
▁детей	-1849
▁очень	-1850
▁своих	-1851
▁строи	-1852
▁способ	-1853
▁федера	-1854
▁директор	-1855
▁некоторы	-1856
▁чемпиона	-1857
▁безопасности	-1858
ri	-1859
пов	-1860
цей	-1861
▁Bl	-1862
▁Ан	-1863
дить	-1864
тами	-1865
форма	-1866
▁выпу	-1867
▁дело	-1868
▁меня	-1869
▁попу	-1870
▁прибы	-1871
▁Москва	-1872
▁депута	-1873
▁мужчина	-1874
вно	-1875
ссо	-1876
тно	-1877
ьер	-1878
▁ад	-1879
▁сы	-1880
▁тя	-1881
били	-1882
пара	-1883
▁бое	-1884
▁там	-1885
ститу	-1886
▁опре	-1887
▁стре	-1888
▁Трамп	-1889
▁город	-1890
структу	-1891
▁обеспе	-1892
▁Россией	-1893
▁Telegram	-1894
""	-1895
жу	-1896
лий	-1897
ним	-1898
пин	-1899
▁31	-1900
ниче	-1901
нных	-1902
▁You	-1903
▁МВД	-1904
▁рез	-1905
менти	-1906
▁аэро	-1907
▁сокра	-1908
▁начала	-1909
▁получа	-1910
▁работу	-1911
»"	-1912
нен	-1913
раз	-1914
сан	-1915
стя	-1916
тах	-1917
стан	-1918
тики	-1919
▁Кра	-1920
жении	-1921
нецов	-1922
ством	-1923
циали	-1924
▁раск	-1925
▁Отмеча	-1926
▁очеред	-1927
▁правоохра	-1928
▁переговоры	-1929
▁сотрудников	-1930
om	-1931
За	-1932
тей	-1933
▁(«	-1934
▁Лу	-1935
нила	-1936
ноги	-1937
▁бор	-1938
▁дел	-1939
▁млн	-1940
▁сум	-1941
доров	-1942
матри	-1943
▁евро	-1944
▁парт	-1945
▁чего	-1946
▁вызва	-1947
▁месте	-1948
▁сериа	-1949
▁группа	-1950
▁обвиня	-1951
▁собира	-1952
Президент	-1953
ws	-1954
мю	-1955
000	-1956
ing	-1957
вок	-1958
мии	-1959
▁Ав	-1960
▁Се	-1961
един	-1962
рори	-1963
рует	-1964
▁200	-1965
▁Кры	-1966
▁Лав	-1967
▁Они	-1968
▁гос	-1969
▁кур	-1970
▁шта	-1971
▁WADA	-1972
▁газа	-1973
▁иску	-1974
▁мень	-1975
▁перс	-1976
▁това	-1977
▁проте	-1978
▁такой	-1979
▁треть	-1980
▁должен	-1981
▁доступ	-1982
▁отказа	-1983
▁привле	-1984
▁Украина	-1985
▁аэропор	-1986
▁бизнеса	-1987
▁внимание	-1988
вая	-1989
каз	-1990
рот	-1991
▁Ли	-1992
льту	-1993
▁неза	-1994
▁опро	-1995
▁служ	-1996
▁разме	-1997
▁рынке	-1998
▁указа	-1999
▁возвра	-2000
▁января	-2001
▁источник	-2002
▁комитета	-2003
▁настоящее	-2004
▁предпринима	-2005
,3	-2006
ИД	-2007
блю	-2008
кин	-2009
нам	-2010
▁аре	-2011
▁ата	-2012
▁лиц	-2013
▁Киев	-2014
▁недо	-2015
▁успе	-2016
ленные	-2017
мюнике	-2018
первые	-2019
▁парла	-2020
▁порта	-2021
▁разре	-2022
▁сказа	-2023
▁число	-2024
▁Франции	-2025
▁получил	-2026
▁формате	-2027
раструкту	-2028
▁Кузнецов	-2029
▁обнаружи	-2030
▁официаль	-2031
▁сентябре	-2032
▁коммюнике	-2033
▁подозрева	-2034
им	-2035
ace	-2036
гей	-2037
кая	-2038
мет	-2039
▁Го	-2040
▁тр	-2041
емых	-2042
тарь	-2043
▁Сан	-2044
проект	-2045
▁акций	-2046
▁новые	-2047
▁подпи	-2048
▁своем	-2049
▁такие	-2050
▁другие	-2051
▁инвесто	-2052
▁обсужда	-2053
▁октябре	-2054
▁течение	-2055
▁удалось	-2056
▁количество	-2057
Ми	-2058
НР	-2059
Ком	-2060
вез	-2061
кси	-2062
лез	-2063
▁50	-2064
ктов	-2065
льзу	-2066
тиво	-2067
▁Гос	-2068
▁МИД	-2069
▁оте	-2070
▁пор	-2071
▁топ	-2072
енера	-2073
ентов	-2074
▁брен	-2075
▁буду	-2076
▁живо	-2077
▁Киева	-2078
▁выпла	-2079
▁килом	-2080
ведения	-2081
▁деньги	-2082
▁замети	-2083
▁мирово	-2084
▁просто	-2085
▁своего	-2086
▁случае	-2087
▁смерти	-2088
▁террори	-2089
▁четверки	-2090
▁ведомства	-2091
▁американского	-2092
лл	-2093
жай	-2094
сро	-2095
чая	-2096
чей	-2097
боль	-2098
дума	-2099
кции	-2100
чета	-2101
▁бюд	-2102
▁обы	-2103
ссажи	-2104
▁неиз	-2105
▁пять	-2106
▁след	-2107
▁благо	-2108
▁конца	-2109
▁права	-2110
▁свобо	-2111
етербур	-2112
▁выступа	-2113
▁издания	-2114
▁приняли	-2115
▁требова	-2116
▁утвержда	-2117
▁программы	-2118
▁производи	-2119
нормандской	-2120
▁Отмечается	-2121
▁предполага	-2122
▁представителей	-2123
▁U	-2124
ube	-2125
них	-2126
сок	-2127
▁иг	-2128
▁шо	-2129
рода	-2130
стой	-2131
▁Кие	-2132
▁акт	-2133
▁нее	-2134
▁сня	-2135
▁эта	-2136
телям	-2137
▁внут	-2138
Россий	-2139
▁допол	-2140
▁места	-2141
ложения	-2142
тельных	-2143
▁действи	-2144
▁женщина	-2145
▁популяр	-2146
▁документ	-2147
,7	-2148
am	-2149
обе	-2150
фер	-2151
шее	-2152
шло	-2153
▁""	-2154
▁Ку	-2155
▁Ле	-2156
▁ОО	-2157
▁мэ	-2158
▁хи	-2159
Tube	-2160
Адми	-2161
лежа	-2162
шили	-2163
▁Тур	-2164
▁бес	-2165
▁язы	-2166
годня	-2167
▁имен	-2168
▁меры	-2169
▁отра	-2170
▁пери	-2171
ствует	-2172
▁голов	-2173
▁искус	-2174
▁рынка	-2175
▁стоит	-2176
▁ближай	-2177
▁городе	-2178
▁медици	-2179
▁начале	-2180
▁впервые	-2181
▁декабре	-2182
▁решения	-2183
▁социаль	-2184
▁администра	-2185
▁инфраструкту	-2186
,2	-2187
,6	-2188
ol	-2189
ty	-2190
Мо	-2191
ок	-2192
нин	-2193
щую	-2194
▁(1	-2195
▁17	-2196
▁22	-2197
йдет	-2198
нить	-2199
пора	-2200
▁кар	-2201
▁кру	-2202
берна	-2203
ового	-2204
▁влия	-2205
▁голо	-2206
▁жиль	-2207
▁счет	-2208
▁ремон	-2209
▁совет	-2210
▁месяца	-2211
▁написал	-2212
▁противо	-2213
▁образова	-2214
▁отмечает	-2215
▁миллиарда	-2216
▁националь	-2217
▁отношения	-2218
▁Зеленского	-2219
▁правительства	-2220
%,	-2221
лии	-2222
хва	-2223
шим	-2224
▁ха	-2225
пози	-2226
▁Пет	-2227
▁Про	-2228
▁Сов	-2229
▁бра	-2230
▁выс	-2231
▁зем	-2232
▁тур	-2233
▁Кита	-2234
тивных	-2235
ческие	-2236
▁Среди	-2237
▁закры	-2238
▁конку	-2239
▁перио	-2240
тически	-2241
▁лидера	-2242
▁называ	-2243
▁YouTube	-2244
▁составля	-2245
▁журналиста	-2246
-1	-2247
ia	-2248
ir	-2249
▁O	-2250
пей	-2251
пек	-2252
сом	-2253
фон	-2254
згла	-2255
нные	-2256
прия	-2257
▁кос	-2258
▁отв	-2259
▁сет	-2260
ющего	-2261
▁дней	-2262
▁музы	-2263
▁прем	-2264
▁филь	-2265
▁назна	-2266
▁объем	-2267
▁ракет	-2268
тельной	-2269
▁версии	-2270
▁метров	-2271
▁призва	-2272
▁жителей	-2273
▁проекта	-2274
▁последние	-2275
pp	-2276
ion	-2277
дой	-2278
или	-2279
лки	-2280
рыв	-2281
люче	-2282
рами	-2283
тива	-2284
▁гру	-2285
▁диа	-2286
▁осу	-2287
▁веду	-2288
▁коми	-2289
▁люди	-2290
▁посе	-2291
▁режи	-2292
▁импор	-2293
▁потер	-2294
▁семей	-2295
▁серви	-2296
▁таких	-2297
пингово	-2298
ставили	-2299
▁Путина	-2300
▁Сергей	-2301
▁капита	-2302
▁лидеры	-2303
▁смогут	-2304
▁встречи	-2305
▁пошлины	-2306
im	-2307
▁K	-2308
wit	-2309
дки	-2310
рец	-2311
рку	-2312
вшие	-2313
енси	-2314
нача	-2315
нобо	-2316
прос	-2317
смот	-2318
спон	-2319
чном	-2320
▁Пес	-2321
▁аль	-2322
▁сти	-2323
▁тро	-2324
движи	-2325
▁арти	-2326
▁плат	-2327
▁ради	-2328
▁стан	-2329
▁тяже	-2330
▁фигу	-2331
▁воору	-2332
▁выпол	-2333
▁предо	-2334
▁второй	-2335
▁испыта	-2336
▁одного	-2337
▁недвижи	-2338
▁находится	-2339
▁возможность	-2340
вел	-2341
вую	-2342
пыт	-2343
сер	-2344
▁24	-2345
▁Те	-2346
▁ря	-2347
кину	-2348
кура	-2349
мере	-2350
чего	-2351
▁100	-2352
▁кла	-2353
Ленты	-2354
водит	-2355
этому	-2356
▁2014	-2357
▁2016	-2358
▁2017	-2359
▁дене	-2360
▁жела	-2361
▁крей	-2362
▁мини	-2363
▁окру	-2364
▁опас	-2365
телями	-2366
▁Тогда	-2367
▁арест	-2368
▁намер	-2369
▁профе	-2370
▁Лужков	-2371
▁Песков	-2372
▁Федера	-2373
▁заседа	-2374
▁культу	-2375
▁нового	-2376
▁транзи	-2377
▁энерго	-2378
нобороны	-2379
▁бывшего	-2380
▁министр	-2381
▁образом	-2382
▁производ	-2383
▁специали	-2384
▁региональ	-2385
▁миллиардер	-2386
▁управления	-2387
as	-2388
us	-2389
БК	-2390
аз	-2391
лн	-2392
рю	-2393
▁J	-2394
oom	-2395
деб	-2396
▁Ди	-2397
гора	-2398
енно	-2399
жных	-2400
явля	-2401
▁Для	-2402
▁наи	-2403
▁род	-2404
▁ули	-2405
стана	-2406
▁увер	-2407
▁услу	-2408
роприя	-2409
▁особо	-2410
Адмирал	-2411
▁антидо	-2412
▁группы	-2413
▁предва	-2414
▁рекорд	-2415
▁устрой	-2416
ственный	-2417
▁очередь	-2418
▁пассажи	-2419
▁запрещен	-2420
▁расследова	-2421
▁сотрудники	-2422
Ве	-2423
МИ	-2424
Мы	-2425
зд	-2426
ook	-2427
лда	-2428
лот	-2429
сля	-2430
чку	-2431
▁Но	-2432
▁Су	-2433
▁Ха	-2434
▁чу	-2435
ерли	-2436
перь	-2437
разу	-2438
сили	-2439
ющим	-2440
▁нац	-2441
▁рей	-2442
▁сва	-2443
▁тот	-2444
▁эфи	-2445
льным	-2446
пания	-2447
▁одоб	-2448
▁регу	-2449
▁тури	-2450
пример	-2451
▁акции	-2452
▁чинов	-2453
ложение	-2454
▁данные	-2455
▁здоров	-2456
▁ответи	-2457
▁работе	-2458
▁времени	-2459
▁губерна	-2460
▁сторона	-2461
провозгла	-2462
▁получить	-2463
▁иностранных	-2464
▁антидопингово	-2465
,4	-2466
ch	-2467
sta	-2468
бир	-2469
лют	-2470
тил	-2471
▁23	-2472
▁ге	-2473
енее	-2474
ится	-2475
читы	-2476
▁000	-2477
▁199	-2478
▁Мар	-2479
▁нем	-2480
телем	-2481
▁2015	-2482
▁Face	-2483
▁Twit	-2484
▁газо	-2485
▁зада	-2486
▁нало	-2487
▁свой	-2488
ваться	-2489
курату	-2490
▁исклю	-2491
▁ключе	-2492
▁расши	-2493
▁часов	-2494
▁шесть	-2495
▁банков	-2496
▁помощи	-2497
▁сконча	-2498
спондент	-2499
▁которую	-2500
▁пригово	-2501
▁Донбасса	-2502
▁коммента	-2503
▁предлага	-2504
▁изменения	-2505
▁российской	-2506
▁деятельности	-2507
20	-2508
▁V	-2509
»."	-2510
гля	-2511
еди	-2512
зил	-2513
рию	-2514
шую	-2515
юза	-2516
▁уч	-2517
лета	-2518
▁каж	-2519
▁сбо	-2520
лению	-2521
ником	-2522
нициа	-2523
рного	-2524
▁Крем	-2525
▁роли	-2526
ленных	-2527
летняя	-2528
статоч	-2529
▁Insta	-2530
▁затем	-2531
▁поста	-2532
▁сорев	-2533
▁Европы	-2534
▁первый	-2535
▁принад	-2536
▁районе	-2537
Петербур	-2538
▁Twitter	-2539
▁медицин	-2540
▁полицей	-2541
▁попроси	-2542
▁пояснил	-2543
▁сделать	-2544
▁неизвест	-2545
▁приводит	-2546
▁Instagram	-2547
▁агентство	-2548
▁восстанов	-2549
▁заявление	-2550
▁произошло	-2551
▁Минобороны	-2552
▁самопровозгла	-2553
,9	-2554
ig	-2555
of	-2556
Се	-2557
mag	-2558
доб	-2559
ять	-2560
▁21	-2561
▁ИИ	-2562
▁сф	-2563
berg	-2564
book	-2565
лами	-2566
март	-2567
нять	-2568
теги	-2569
тные	-2570
шать	-2571
▁Ком	-2572
▁нас	-2573
▁пои	-2574
▁эко	-2575
нение	-2576
▁суда	-2577
нистер	-2578
чества	-2579
▁жизнь	-2580
▁значи	-2581
▁менее	-2582
▁объяв	-2583
▁объяс	-2584
▁рынок	-2585
▁Красно	-2586
▁должна	-2587
▁партии	-2588
▁почему	-2589
▁список	-2590
▁станет	-2591
▁позволя	-2592
▁помощью	-2593
▁процесс	-2594
▁санкций	-2595
▁системы	-2596
▁средств	-2597
нительные	-2598
▁Facebook	-2599
▁больнице	-2600
▁мероприя	-2601
▁газопрово	-2602
▁населения	-2603
▁украинского	-2604
▁предваритель	-2605
50	-2606
ат	-2607
вор	-2608
лек	-2609
лок	-2610
мом	-2611
рма	-2612
шта	-2613
▁26	-2614
▁40	-2615
▁Ne	-2616
▁ду	-2617
▁ти	-2618
деля	-2619
обре	-2620
ркут	-2621
тили	-2622
ющей	-2623
▁Вер	-2624
▁суб	-2625
говой	-2626
▁игра	-2627
▁маши	-2628
▁напа	-2629
▁семь	-2630
▁фоне	-2631
няется	-2632
сторон	-2633
▁Bloom	-2634
▁кажды	-2635
▁наблю	-2636
▁обмен	-2637
▁экспо	-2638
▁Лавров	-2639
▁замести	-2640
▁месяцев	-2641
▁органов	-2642
▁полиции	-2643
▁разгово	-2644
▁участия	-2645
▁электро	-2646
▁поддержа	-2647
▁специаль	-2648
▁эксперты	-2649
▁Bloomberg	-2650
▁планирует	-2651
▁соревнова	-2652
▁фотографи	-2653
▁рассказали	-2654
▁пользователей	-2655
их	-2656
▁X	-2657
аги	-2658
ила	-2659
вобо	-2660
вода	-2661
вока	-2662
мест	-2663
▁Get	-2664
▁пря	-2665
кации	-2666
ществ	-2667
▁Imag	-2668
▁рост	-2669
▁срок	-2670
▁трен	-2671
ваются	-2672
держан	-2673
▁Санкт	-2674
▁многи	-2675
▁награ	-2676
▁народ	-2677
держива	-2678
▁Дональ	-2679
▁другой	-2680
▁закона	-2681
▁проект	-2682
▁сообщила	-2683
▁российские	-2684
id	-2685
os	-2686
ами	-2687
вид	-2688
иль	-2689
лла	-2690
щие	-2691
гети	-2692
лору	-2693
овом	-2694
пере	-2695
стом	-2696
ффек	-2697
▁Сто	-2698
▁ава	-2699
▁дов	-2700
▁нар	-2701
вания	-2702
кспер	-2703
пании	-2704
▁акти	-2705
▁прак	-2706
▁собы	-2707
▁стол	-2708
▁Getty	-2709
▁Госду	-2710
▁Серге	-2711
▁запла	-2712
▁имеет	-2713
▁Images	-2714
▁Андрей	-2715
▁Подроб	-2716
▁данных	-2717
▁меньше	-2718
▁первом	-2719
▁пожара	-2720
▁Алексей	-2721
▁корпора	-2722
▁назвали	-2723
▁несколь	-2724
▁больницу	-2725
▁контроль	-2726
▁контроля	-2727
▁миллиардов	-2728
▁обнаружили	-2729
▁представля	-2730
▁пострадавших	-2731
re	-2732
ай	-2733
▁*	-2734
бро	-2735
вым	-2736
зяй	-2737
нюю	-2738
тых	-2739
▁Вы	-2740
▁Ее	-2741
▁ЦБ	-2742
ента	-2743
жать	-2744
нику	-2745
онец	-2746
рить	-2747
скор	-2748
ятся	-2749
▁ана	-2750
▁зда	-2751
▁иде	-2752
▁соц	-2753
▁юри	-2754
лений	-2755
ритан	-2756
седни	-2757
секре	-2758
шенко	-2759
▁пост	-2760
▁срав	-2761
▁тело	-2762
аксима	-2763
цидент	-2764
▁самых	-2765
▁случи	-2766
проекта	-2767
▁квадра	-2768
▁постав	-2769
▁примен	-2770
▁центре	-2771
▁вопроса	-2772
▁лидеров	-2773
▁октября	-2774
▁премьер	-2775
▁пунктов	-2776
▁руковод	-2777
▁договори	-2778
▁оказался	-2779
▁последни	-2780
▁финансов	-2781
▁задержали	-2782
▁стоимость	-2783
▁соответству	-2784
ad	-2785
...	-2786
гом	-2787
ено	-2788
жит	-2789
кую	-2790
рит	-2791
риф	-2792
рок	-2793
сет	-2794
тья	-2795
чат	-2796
▁Re	-2797
▁Ру	-2798
▁ль	-2799
вили	-2800
муще	-2801
поте	-2802
стка	-2803
того	-2804
чным	-2805
▁РБК	-2806
▁важ	-2807
▁эту	-2808
более	-2809
видет	-2810
никам	-2811
работ	-2812
▁2022	-2813
▁Миха	-2814
▁След	-2815
▁запи	-2816
▁карь	-2817
▁лишь	-2818
▁нико	-2819
▁пяти	-2820
▁собе	-2821
▁суще	-2822
честве	-2823
▁Глава	-2824
▁нужно	-2825
▁смарт	-2826
▁турни	-2827
летнего	-2828
ственно	-2829
▁большо	-2830
▁вместе	-2831
▁генера	-2832
▁интере	-2833
▁покупа	-2834
▁встреча	-2835
▁партнер	-2836
▁уточнил	-2837
▁участие	-2838
▁отметили	-2839
▁провести	-2840
▁средства	-2841
▁произошед	-2842
▁дипломатиче	-2843
▁планируется	-2844
ng	-2845
Про	-2846
тию	-2847
▁28	-2848
▁St	-2849
▁ЕС	-2850
pple	-2851
номо	-2852
утбо	-2853
ющую	-2854
▁СМИ	-2855
▁бло	-2856
▁дли	-2857
▁дня	-2858
▁лег	-2859
▁мет	-2860
▁ним	-2861
▁сил	-2862
▁циф	-2863
менте	-2864
▁жерт	-2865
▁мать	-2866
▁ниже	-2867
▁одна	-2868
версит	-2869
ровала	-2870
ходить	-2871
▁нашли	-2872
▁пенси	-2873
▁превы	-2874
▁работ	-2875
▁рекла	-2876
▁таким	-2877
▁возгла	-2878
▁инстру	-2879
▁миниму	-2880
▁органы	-2881
▁пример	-2882
▁раскры	-2883
▁формат	-2884
▁внутрен	-2885
▁военных	-2886
▁подписа	-2887
▁рейтинг	-2888
▁статуса	-2889
нительных	-2890
▁руководи	-2891
▁некоторые	-2892
▁предложил	-2893
нормандском	-2894
▁российским	-2895
▁российском	-2896
▁опубликован	-2897
Со	-2898
дек	-2899
жей	-2900
лой	-2901
▁Sp	-2902
▁Ев	-2903
анка	-2904
вшая	-2905
деле	-2906
лайн	-2907
лега	-2908
рной	-2909
рпла	-2910
сере	-2911
хран	-2912
шков	-2913
▁Ава	-2914
▁Гри	-2915
▁две	-2916
▁еди	-2917
▁кры	-2918
▁спу	-2919
▁шоу	-2920
можно	-2921
чении	-2922
▁Шере	-2923
▁внес	-2924
▁забо	-2925
▁запу	-2926
▁подс	-2927
▁пояс	-2928
▁реда	-2929
▁смог	-2930
▁этим	-2931
▁Берли	-2932
▁Донец	-2933
▁выход	-2934
▁общей	-2935
▁одним	-2936
▁тогда	-2937
ведение	-2938
рования	-2939
▁Турции	-2940
▁зарпла	-2941
▁инициа	-2942
▁наказа	-2943
▁помощь	-2944
▁возгора	-2945
▁выборов	-2946
▁сегодня	-2947
▁феврале	-2948
▁операции	-2949
▁отметила	-2950
▁председа	-2951
▁работать	-2952
▁развития	-2953
▁стратеги	-2954
▁Вашингтон	-2955
▁Националь	-2956
▁сообщении	-2957
▁парламента	-2958
▁телеканала	-2959
▁законопроект	-2960
▁рассказывает	-2961
▁представители	-2962
▁представитель	-2963
!»	-2964
%.	-2965
ot	-2966
шу	-2967
вии	-2968
дит	-2969
ссе	-2970
▁съ	-2971
aily	-2972
виси	-2973
ктор	-2974
руют	-2975
чили	-2976
чную	-2977
▁Май	-2978
▁вза	-2979
▁дав	-2980
▁дом	-2981
шению	-2982
▁2023	-2983
▁арен	-2984
▁внеш	-2985
▁выда	-2986
▁выяс	-2987
▁девя	-2988
▁делу	-2989
▁мире	-2990
▁оцен	-2991
▁похо	-2992
▁спец	-2993
▁стар	-2994
москов	-2995
▁Daily	-2996
▁войны	-2997
▁нарко	-2998
▁новый	-2999
▁поряд	-3000
▁роста	-3001
▁эфире	-3002
▁Евросо	-3003
▁бюджет	-3004
▁должно	-3005
▁житель	-3006
▁неодно	-3007
▁потому	-3008
ственной	-3009
▁большин	-3010
▁встречу	-3011
▁выступи	-3012
▁интелле	-3013
▁принима	-3014
▁приобре	-3015
▁размере	-3016
▁согласи	-3017
▁четырех	-3018
секретарь	-3019
▁согласно	-3020
▁состояние	-3021
▁международных	-3022
▁урегулированию	-3023
Во	-3024
Де	-3025
Не	-3026
рэ	-3027
юз	-3028
гно	-3029
док	-3030
лью	-3031
пру	-3032
сон	-3033
цов	-3034
что	-3035
ыми	-3036
▁Би	-3037
▁ла	-3038
баты	-3039
берг	-3040
лить	-3041
риан	-3042
траф	-3043
▁Рос	-3044
▁мощ	-3045
▁отк	-3046
▁спа	-3047
ереди	-3048
овали	-3049
стема	-3050
▁бере	-3051
▁кино	-3052
▁лица	-3053
▁неме	-3054
▁пото	-3055
▁прио	-3056
▁сель	-3057
▁этих	-3058
мерсан	-3059
службе	-3060
▁Apple	-3061
▁долго	-3062
▁китай	-3063
▁обнов	-3064
▁реаль	-3065
▁сразу	-3066
▁среду	-3067
▁эффек	-3068
ционной	-3069
▁Москов	-3070
▁Сергея	-3071
▁десяти	-3072
▁народа	-3073
▁ничего	-3074
▁останов	-3075
▁поступи	-3076
▁прошлом	-3077
▁содержа	-3078
▁четверг	-3079
▁контракт	-3080
▁професси	-3081
▁республик	-3082
▁уголовное	-3083
▁предположи	-3084
▁опубликовал	-3085
oc	-3086
ru	-3087
вли	-3088
душ	-3089
жар	-3090
кви	-3091
лка	-3092
лый	-3093
рин	-3094
сур	-3095
▁УК	-3096
кими	-3097
няет	-3098
риса	-3099
чать	-3100
чная	-3101
▁Нов	-3102
▁кан	-3103
▁оно	-3104
▁пси	-3105
▁сай	-3106
▁сез	-3107
▁фун	-3108
▁чер	-3109
Север	-3110
вание	-3111
веден	-3112
парта	-3113
▁Вели	-3114
▁Цент	-3115
▁всем	-3116
▁маль	-3117
▁масс	-3118
▁паци	-3119
▁скры	-3120
▁тера	-3121
менить	-3122
никами	-3123
▁десят	-3124
▁месяц	-3125
нирован	-3126
▁автома	-3127
▁военно	-3128
▁каждый	-3129
▁москов	-3130
▁постоя	-3131
▁распро	-3132
▁экстре	-3133
▁Олимпий	-3134
▁включая	-3135
▁девочки	-3136
▁европей	-3137
▁минских	-3138
▁никогда	-3139
▁отправи	-3140
▁погибли	-3141
▁поэтому	-3142
▁продажи	-3143
▁управля	-3144
▁интернет	-3145
▁крейсере	-3146
▁получила	-3147
▁проблемы	-3148
▁информацию	-3149
▁пострадали	-3150
▁соглашений	-3151
▁ограничения	-3152
▁миллиардеров	-3153
la	-3154
ху	-3155
Слу	-3156
беж	-3157
буж	-3158
зад	-3159
лиш	-3160
нал	-3161
щим	-3162
▁27	-3163
▁Гу	-3164
▁ап	-3165
▁жа	-3166
вшем	-3167
кобы	-3168
онах	-3169
рных	-3170
сить	-3171
фици	-3172
шить	-3173
▁Кар	-3174
▁Мак	-3175
▁Ста	-3176
▁Чер	-3177
▁ген	-3178
▁тек	-3179
зация	-3180
ницей	-3181
рения	-3182
▁втор	-3183
▁двое	-3184
▁ника	-3185
▁пала	-3186
▁пово	-3187
▁трлн	-3188
▁фран	-3189
▁хара	-3190
ческий	-3191
▁войск	-3192
▁ипоте	-3193
▁комна	-3194
▁назад	-3195
▁подоб	-3196
▁тариф	-3197
▁футбо	-3198
тельств	-3199
▁всегда	-3200
▁именно	-3201
▁мальчи	-3202
▁опреде	-3203
▁проком	-3204
▁уровня	-3205
▁Украину	-3206
▁августа	-3207
▁следует	-3208
▁совмест	-3209
▁уровень	-3210
▁Украиной	-3211
▁возрасте	-3212
▁задержан	-3213
▁предупре	-3214
▁бизнесмен	-3215
▁документа	-3216
▁обвинения	-3217
▁промышлен	-3218
▁собеседни	-3219
▁стоимости	-3220
▁необходимо	-3221
▁принадлежа	-3222
▁переговорах	-3223
▁президентом	-3224
▁прокомменти	-3225
▁исследования	-3226
▁опубликовано	-3227
,8	-3228
30	-3229
ox	-3230
Ка	-3231
ast	-3232
Гла	-3233
гре	-3234
ема	-3235
зем	-3236
мых	-3237
тый	-3238
чем	-3239
▁НА	-3240
▁Ти	-3241
вшей	-3242
каун	-3243
лети	-3244
лизи	-3245
лоба	-3246
нной	-3247
степ	-3248
тной	-3249
▁Мос	-3250
▁мас	-3251
▁пят	-3252
▁уво	-3253
▁уче	-3254
емого	-3255
клады	-3256
мотре	-3257
нению	-3258
▁Речь	-3259
▁бума	-3260
▁выше	-3261
▁начи	-3262
▁непо	-3263
▁одно	-3264
▁русс	-3265
▁себе	-3266
▁теку	-3267
▁трав	-3268
лением	-3269
россий	-3270
ствуют	-3271
▁взрыв	-3272
▁выбра	-3273
▁запад	-3274
▁одном	-3275
▁оружи	-3276
▁якобы	-3277
▁относи	-3278
▁попыта	-3279
▁станов	-3280
▁уровне	-3281
▁вопросы	-3282
▁крупней	-3283
▁наблюда	-3284
▁система	-3285
▁указыва	-3286
Коммерсан	-3287
▁политики	-3288
▁договорен	-3289
▁планируют	-3290
▁сложности	-3291
▁Александра	-3292
ne	-3293
ve	-3294
Ян	-3295
ел	-3296
фо	-3297
ort	-3298
Газ	-3299
бло	-3300
езд	-3301
емь	-3302
куп	-3303
мар	-3304
неш	-3305
ьез	-3306
▁Ду	-3307
бере	-3308
даря	-3309
йден	-3310
ниях	-3311
стях	-3312
тера	-3313
циях	-3314
▁Евг	-3315
▁Сам	-3316
▁Там	-3317
битра	-3318
город	-3319
дется	-3320
енции	-3321
логии	-3322
ствии	-3323
ходов	-3324
▁золо	-3325
▁зоне	-3326
▁огня	-3327
▁отда	-3328
▁пору	-3329
forbes	-3330
ждение	-3331
канале	-3332
кратно	-3333
шением	-3334
▁Иркут	-3335
▁видно	-3336
▁ликви	-3337
▁отсут	-3338
▁повед	-3339
▁рубля	-3340
▁собра	-3341
▁целом	-3342
▁Верхов	-3343
▁делать	-3344
▁конкур	-3345
▁находя	-3346
▁освобо	-3347
▁основе	-3348
▁отдель	-3349
▁подели	-3350
▁прошел	-3351
▁середи	-3352
▁госпита	-3353
▁дальней	-3354
▁максима	-3355
▁объявил	-3356
▁транспо	-3357
ступления	-3358
▁использу	-3359
▁наиболее	-3360
▁россияне	-3361
▁сентября	-3362
▁странице	-3363
▁экстреми	-3364
▁энергети	-3365
▁Владимиром	-3366
▁километров	-3367
▁нескольких	-3368
▁ответствен	-3369
▁проведения	-3370
▁правительство	-3371
,1	-3372
5-	-3373
»)	-3374
Из	-3375
ТО	-3376
▁ц	-3377
жем	-3378
мые	-3379
нев	-3380
оби	-3381
сил	-3382
тят	-3383
щал	-3384
ыду	-3385
▁Эр	-3386
вала	-3387
рили	-3388
ходы	-3389
▁Ген	-3390
▁Рес	-3391
▁мат	-3392
▁обу	-3393
ложен	-3394
тного	-3395
формы	-3396
▁годы	-3397
▁игро	-3398
▁мета	-3399
▁мэра	-3400
▁отды	-3401
▁хотя	-3402
Россия	-3403
ндский	-3404
недель	-3405
▁Луган	-3406
▁Мужчи	-3407
▁клима	-3408
▁оскор	-3409
▁пропа	-3410
▁разли	-3411
ксперты	-3412
ставить	-3413
шествия	-3414
▁масшта	-3415
▁отстра	-3416
▁центра	-3417
ждународ	-3418
▁августе	-3419
▁область	-3420
▁предыду	-3421
▁причаст	-3422
▁рекомен	-3423
▁Республи	-3424
▁позволит	-3425
▁получили	-3426
▁университ	-3427
▁реализации	-3428
▁республики	-3429
▁украинский	-3430
▁предполагает	-3431
ич	-3432
ял	-3433
▁i	-3434
ard	-3435
Это	-3436
вью	-3437
гру	-3438
жде	-3439
зер	-3440
кар	-3441
лых	-3442
нул	-3443
ями	-3444
вери	-3445
вшим	-3446
гает	-3447
мимо	-3448
нина	-3449
нный	-3450
поли	-3451
роят	-3452
снов	-3453
чему	-3454
ющая	-3455
ющее	-3456
▁Иго	-3457
▁Кур	-3458
▁оши	-3459
Норма	-3460
вался	-3461
нской	-3462
ровки	-3463
▁Mail	-3464
▁бога	-3465
▁борь	-3466
▁мину	-3467
▁отде	-3468
▁отре	-3469
▁пита	-3470
▁поме	-3471
▁раза	-3472
▁студ	-3473
▁узна	-3474
▁хоро	-3475
катери	-3476
летней	-3477
▁Китая	-3478
▁глоба	-3479
▁минут	-3480
▁непри	-3481
▁пожар	-3482
тельные	-3483
▁Белору	-3484
▁вступи	-3485
▁газета	-3486
▁оконча	-3487
▁период	-3488
▁площад	-3489
▁посети	-3490
▁теперь	-3491
статочно	-3492
▁Лужкова	-3493
▁Трампом	-3494
▁вторник	-3495
▁олимпий	-3496
▁потреби	-3497
▁саммите	-3498
▁товаров	-3499
▁Донецкой	-3500
▁передачи	-3501
▁понедель	-3502
▁родствен	-3503
▁снижение	-3504
▁материале	-3505
▁полностью	-3506
▁рассматри	-3507
▁квадратных	-3508
▁нацпроекта	-3509
▁результаты	-3510
▁участников	-3511
▁возможности	-3512
▁рассказываем	-3513
▁предварительным	-3514
ur	-3515
Ко	-3516
-20	-3517
тое	-3518
чай	-3519
▁29	-3520
▁36	-3521
uter	-3522
гази	-3523
десь	-3524
екла	-3525
емый	-3526
овал	-3527
овая	-3528
▁Tim	-3529
▁Пре	-3530
▁изу	-3531
▁обе	-3532
▁ред	-3533
виден	-3534
оволь	-3535
ровой	-3536
▁2010	-3537
▁Поли	-3538
▁близ	-3539
▁выру	-3540
▁госс	-3541
▁июля	-3542
▁коло	-3543
▁кора	-3544
▁поко	-3545
▁речь	-3546
▁силу	-3547
Газпро	-3548
основа	-3549
сматри	-3550
▁корре	-3551
▁напом	-3552
▁новой	-3553
▁приве	-3554
▁решил	-3555
▁самоу	-3556
▁сумму	-3557
ложений	-3558
пустить	-3559
тельный	-3560
▁Москву	-3561
▁Сейчас	-3562
▁апреле	-3563
▁онлайн	-3564
▁понима	-3565
▁пошлин	-3566
▁претен	-3567
▁рейтин	-3568
▁трилли	-3569
▁уверен	-3570
станавли	-3571
ционного	-3572
▁Екатери	-3573
▁владель	-3574
▁комитет	-3575
▁мужчины	-3576
▁оказыва	-3577
▁прибыли	-3578
▁законода	-3579
▁например	-3580
▁объяснил	-3581
▁сообщило	-3582
▁скончался	-3583
Нормандский	-3584
▁украинской	-3585
▁американской	-3586
▁деятельность	-3587
▁неоднократно	-3588
▁политических	-3589
▁пользователи	-3590
nd	-3591
Ма	-3592
Ру	-3593
ЧС	-3594
нс	-3595
тъ	-3596
эй	-3597
ent	-3598
еру	-3599
зма	-3600
коб	-3601
лев	-3602
лер	-3603
рее	-3604
цио	-3605
чек	-3606
▁$1	-3607
▁Их	-3608
берб	-3609
здни	-3610
креп	-3611
личи	-3612
лять	-3613
пред	-3614
чены	-3615
▁Ана	-3616
▁Гре	-3617
▁МЧС	-3618
▁мор	-3619
▁низ	-3620
▁ост	-3621
uters	-3622
летов	-3623
туаль	-3624
ченко	-3625
▁Юрий	-3626
▁доме	-3627
▁зару	-3628
▁каса	-3629
▁купи	-3630
▁памя	-3631
▁писа	-3632
▁чита	-3633
ческую	-3634
▁Григо	-3635
▁лучше	-3636
▁мошен	-3637
▁ресур	-3638
▁самым	-3639
▁сфере	-3640
▁такое	-3641
▁шести	-3642
тивного	-3643
ционная	-3644
▁Предпо	-3645
▁адвока	-3646
▁британ	-3647
▁быстро	-3648
▁ввести	-3649
▁жители	-3650
▁первую	-3651
▁полови	-3652
▁положи	-3653
▁попали	-3654
▁спустя	-3655
▁указал	-3656
видетель	-3657
▁Reuters	-3658
▁аналоги	-3659
▁властей	-3660
▁выразил	-3661
▁направи	-3662
▁персона	-3663
▁посчита	-3664
▁праздни	-3665
▁признал	-3666
▁свободы	-3667
▁февраля	-3668
▁животных	-3669
▁интервью	-3670
▁отмечают	-3671
▁предприя	-3672
▁продолжи	-3673
▁рейтинге	-3674
▁убийстве	-3675
▁Представи	-3676
▁Федерации	-3677
▁аналитики	-3678
▁ближайшие	-3679
▁оказались	-3680
▁разработа	-3681
▁согласова	-3682
▁составила	-3683
▁отечествен	-3684
▁составляет	-3685
▁недвижимости	-3686
-3	-3687
ам	-3688
ros	-3689
део	-3690
хан	-3691
▁Хо	-3692
▁ал	-3693
▁мя	-3694
Фото	-3695
года	-3696
енти	-3697
лига	-3698
мень	-3699
мета	-3700
стер	-3701
тего	-3702
шено	-3703
щать	-3704
▁ООО	-3705
▁моз	-3706
▁неу	-3707
▁сда	-3708
▁сту	-3709
опера	-3710
ходят	-3711
швили	-3712
▁News	-3713
▁банк	-3714
▁жени	-3715
▁июле	-3716
▁июне	-3717
▁ката	-3718
Яндекс	-3719
валась	-3720
ностей	-3721
рованы	-3722
▁2019-	-3723
▁вошли	-3724
▁немец	-3725
▁покуп	-3726
▁потра	-3727
▁сохра	-3728
▁судеб	-3729
ционный	-3730
ционных	-3731
▁вариан	-3732
▁вместо	-3733
▁довери	-3734
▁канала	-3735
▁магази	-3736
▁пригла	-3737
▁серьез	-3738
▁ставки	-3739
▁старта	-3740
▁статье	-3741
▁стрель	-3742
ствующий	-3743
▁активно	-3744
▁выросла	-3745
▁интерес	-3746
▁минимум	-3747
▁налогов	-3748
▁особого	-3749
▁пятницу	-3750
▁ребенок	-3751
▁Эксперты	-3752
▁квартире	-3753
▁министра	-3754
▁примерно	-3755
▁Луганской	-3756
▁потребова	-3757
▁инвесторов	-3758
▁дипломатическая	-3759
ум	-3760
щу	-3761
ъя	-3762
еть	-3763
кли	-3764
лег	-3765
лья	-3766
лян	-3767
пря	-3768
ъек	-3769
▁(2	-3770
▁Пе	-3771
град	-3772
дого	-3773
жный	-3774
рели	-3775
рити	-3776
сток	-3777
▁Бел	-3778
▁Еще	-3779
▁Оте	-3780
▁Пра	-3781
▁зам	-3782
▁мне	-3783
▁чув	-3784
ation	-3785
зацию	-3786
льную	-3787
ляции	-3788
стора	-3789
циями	-3790
ченые	-3791
▁Боль	-3792
▁Глав	-3793
▁доби	-3794
▁доля	-3795
▁захо	-3796
▁иска	-3797
▁опла	-3798
▁прин	-3799
▁путе	-3800
▁сцен	-3801
бужден	-3802
единен	-3803
▁Всего	-3804
▁вести	-3805
▁врачи	-3806
▁здесь	-3807
▁имеют	-3808
▁найти	-3809
▁начал	-3810
▁нашем	-3811
▁нефте	-3812
▁соста	-3813
▁супру	-3814
▁требу	-3815
▁часто	-3816
ленными	-3817
тельное	-3818
▁Аваков	-3819
▁аппара	-3820
▁бывший	-3821
▁заболе	-3822
▁катего	-3823
▁написа	-3824
▁оскорб	-3825
▁постро	-3826
▁пункта	-3827
▁рабочи	-3828
▁службы	-3829
▁страна	-3830
▁страну	-3831
женность	-3832
тельница	-3833
▁Госдумы	-3834
▁заметил	-3835
▁незакон	-3836
▁препара	-3837
▁призвал	-3838
▁создать	-3839
▁финанси	-3840
▁действий	-3841
▁работает	-3842
▁развитие	-3843
▁современ	-3844
▁Иркутской	-3845
▁экономики	-3846
Коммерсантъ	-3847
▁понедельник	-3848
▁американских	-3849
▁использовать	-3850
▁руководитель	-3851
Бо	-3852
igh	-3853
oft	-3854
»).	-3855
все	-3856
зах	-3857
зит	-3858
лоу	-3859
нос	-3860
шил	-3861
▁РФ	-3862
Моск	-3863
жает	-3864
отсе	-3865
рост	-3866
рыва	-3867
сила	-3868
спек	-3869
чное	-3870
шему	-3871
▁1,5	-3872
▁Пом	-3873
▁бал	-3874
▁гро	-3875
▁кни	-3876
▁нач	-3877
▁оде	-3878
Слуга	-3879
дента	-3880
льном	-3881
тивно	-3882
чески	-3883
▁весь	-3884
▁море	-3885
▁нега	-3886
▁ними	-3887
лимпиа	-3888
лишком	-3889
пустил	-3890
ссоциа	-3891
тивные	-3892
▁Таким	-3893
▁камер	-3894
▁комму	-3895
▁марте	-3896
▁могли	-3897
▁разби	-3898
▁скоро	-3899
▁снизи	-3900
▁целью	-3901
▁Совета	-3902
▁втором	-3903
▁женщин	-3904
▁многие	-3905
▁начали	-3906
▁началь	-3907
▁прогно	-3908
▁саммит	-3909
▁сторон	-3910
▁квартир	-3911
▁колонии	-3912
▁прожива	-3913
▁Конститу	-3914
▁вооружен	-3915
▁долгосро	-3916
▁качестве	-3917
▁причиной	-3918
▁работают	-3919
▁рейтинга	-3920
▁Евросоюза	-3921
▁источники	-3922
▁появилась	-3923
▁утверждает	-3924
▁энергоотсе	-3925
▁Подробности	-3926
▁госпитализи	-3927
▁американском	-3928
▁профессиональ	-3929
ce	-3930
od	-3931
ut	-3932
дж	-3933
зм	-3934
хе	-3935
вен	-3936
глу	-3937
гры	-3938
еты	-3939
кто	-3940
пео	-3941
рур	-3942
тан	-3943
тех	-3944
узы	-3945
ьев	-3946
▁Ге	-3947
▁Ча	-3948
▁ша	-3949
дает	-3950
жной	-3951
лина	-3952
нала	-3953
риев	-3954
слав	-3955
тере	-3956
▁Гру	-3957
▁ООН	-3958
▁Суд	-3959
▁Тун	-3960
▁бро	-3961
▁кол	-3962
▁оке	-3963
▁ряд	-3964
Глава	-3965
держи	-3966
дером	-3967
ехать	-3968
льное	-3969
нется	-3970
ровых	-3971
совет	-3972
тории	-3973
фикси	-3974
чений	-3975
шенно	-3976
щиков	-3977
▁выво	-3978
▁крае	-3979
▁кров	-3980
▁либо	-3981
▁отве	-3982
▁пара	-3983
▁раст	-3984
▁степ	-3985
▁учре	-3986
аккаун	-3987
смотря	-3988
тивный	-3989
▁Видео	-3990
▁Всеми	-3991
▁Татья	-3992
▁денег	-3993
▁иноаг	-3994
▁какие	-3995
▁линии	-3996
▁невоз	-3997
▁норма	-3998
▁попал	-3999
▁поток	-4000
▁психо	-4001
▁своим	-4002
▁собой	-4003
▁топли	-4004
▁хозяй	-4005
▁школь	-4006
▁штраф	-4007
▁этому	-4008
кобрита	-4009
▁Мошков	-4010
▁Помпео	-4011
▁артист	-4012
▁доказа	-4013
▁модель	-4014
▁Дмитрия	-4015
▁Мужчина	-4016
▁говорит	-4017
▁девушка	-4018
▁знамени	-4019
▁лишения	-4020
▁местных	-4021
▁ответил	-4022
▁приняла	-4023
▁регионе	-4024
▁регуляр	-4025
▁слишком	-4026
▁телефон	-4027
▁трансля	-4028
▁чемпион	-4029
билизации	-4030
▁добавила	-4031
▁заработа	-4032
▁здоровья	-4033
▁несмотря	-4034
▁подсчита	-4035
▁пожалова	-4036
▁проблема	-4037
▁условиях	-4038
▁электрон	-4039
▁нарушения	-4040
▁оказалась	-4041
▁прокурату	-4042
▁следствия	-4043
▁состоянии	-4044
▁сравнению	-4045
▁российская	-4046
▁технологии	-4047
▁технологий	-4048
▁Великобрита	-4049
▁заместитель	-4050
▁спортсменов	-4051
▁преступления	-4052
▁происшествия	-4053
▁инфраструктуры	-4054
▁государственных	-4055
)"	-4056
PO	-4057
ay	-4058
ul	-4059
un	-4060
Бы	-4061
СБ	-4062
СП	-4063
Си	-4064
one	-4065
При	-4066
бов	-4067
бсо	-4068
джи	-4069
дят	-4070
кти	-4071
лах	-4072
лин	-4073
рай	-4074
рас	-4075
сах	-4076
сят	-4077
тим	-4078
хом	-4079
шек	-4080
▁60	-4081
▁Бу	-4082
▁Ту	-4083
▁ау	-4084
▁зи	-4085
▁ут	-4086
WADA	-4087
гами	-4088
лили	-4089
нгов	-4090
нему	-4091
сьми	-4092
чает	-4093
чила	-4094
▁Red	-4095
▁Вме	-4096
▁Дру	-4097
▁Ива	-4098
▁Мед	-4099
▁Мур	-4100
▁Раз	-4101
▁Тай	-4102
▁кам	-4103
ловно	-4104
льная	-4105
менты	-4106
пилот	-4107
силия	-4108
служа	-4109
стоке	-4110
тиков	-4111
▁Анто	-4112
▁Если	-4113
▁Коло	-4114
▁НАТО	-4115
▁базе	-4116
▁дета	-4117
▁жест	-4118
▁посо	-4119
▁скан	-4120
▁удоб	-4121
Москва	-4122
езопас	-4123
конфер	-4124
рабаты	-4125
▁Молда	-4126
▁банки	-4127
▁годам	-4128
▁жилья	-4129
▁медиа	-4130
▁пообе	-4131
▁приез	-4132
▁редак	-4133
▁сутки	-4134
▁успеш	-4135
▁форму	-4136
сказыва	-4137
▁Мосбир	-4138
▁вероят	-4139
▁восемь	-4140
▁высоко	-4141
▁данный	-4142
▁измени	-4143
▁истори	-4144
▁кварта	-4145
▁корруп	-4146
▁подроб	-4147
▁принял	-4148
▁присут	-4149
▁причин	-4150
▁прошед	-4151
▁случай	-4152
▁состав	-4153
▁соцсет	-4154
▁спорта	-4155
▁статьи	-4156
▁характ	-4157
▁Берлине	-4158
▁Соответ	-4159
▁арбитра	-4160
▁зафикси	-4161
▁истории	-4162
▁километ	-4163
▁команды	-4164
▁которым	-4165
▁мировой	-4166
▁полицию	-4167
▁проблем	-4168
▁разбира	-4169
▁систему	-4170
▁среднем	-4171
▁столице	-4172
▁которому	-4173
▁объектов	-4174
▁появился	-4175
▁развитию	-4176
▁благодаря	-4177
▁устанавли	-4178
▁предложили	-4179
▁собирается	-4180
▁большинство	-4181
▁корреспондент	-4182
do	-4183
Жи	-4184
ПЛ	-4185
нх	-4186
▁0	-4187
ана	-4188
бин	-4189
гах	-4190
дим	-4191
лку	-4192
мую	-4193
нси	-4194
пон	-4195
пят	-4196
рое	-4197
узе	-4198
шки	-4199
▁"«	-4200
▁Пи	-4201
▁Ри	-4202
▁СК	-4203
веду	-4204
веро	-4205
енко	-4206
кану	-4207
коми	-4208
леты	-4209
паса	-4210
реги	-4211
силь	-4212
чено	-4213
▁Air	-4214
▁Воз	-4215
▁Коб	-4216
▁Слу	-4217
▁Что	-4218
▁глу	-4219
▁дер	-4220
▁клу	-4221
▁мая	-4222
▁мед	-4223
▁сме	-4224
блоки	-4225
печат	-4226
ренко	-4227
споко	-4228
ствий	-4229
стями	-4230
тился	-4231
▁вину	-4232
▁добы	-4233
▁изъя	-4234
▁любо	-4235
▁ночь	-4236
▁озна	-4237
▁поса	-4238
▁проз	-4239
▁связ	-4240
▁сена	-4241
▁серд	-4242
▁цена	-4243
жением	-4244
кануне	-4245
ленной	-4246
ментов	-4247
тивной	-4248
▁армии	-4249
▁доход	-4250
▁итоге	-4251
▁могла	-4252
▁нашей	-4253
▁попыт	-4254
▁улице	-4255
▁хотят	-4256
вшегося	-4257
лизации	-4258
рование	-4259
▁Первый	-4260
▁возник	-4261
▁другим	-4262
▁музыка	-4263
▁отправ	-4264
▁повлия	-4265
▁сможет	-4266
▁уничто	-4267
тических	-4268
▁Путиным	-4269
▁вернуть	-4270
▁высказа	-4271
▁девочка	-4272
▁депутат	-4273
▁полиция	-4274
▁распоря	-4275
▁сказала	-4276
▁беспилот	-4277
▁больницы	-4278
▁возглави	-4279
▁движения	-4280
▁квартиры	-4281
▁местного	-4282
▁осуществ	-4283
▁протеста	-4284
▁являются	-4285
▁Зеленским	-4286
▁Подмосков	-4287
▁заседании	-4288
▁оказалось	-4289
▁поведение	-4290
▁сообщения	-4291
▁информация	-4292
▁разведения	-4293
▁размещения	-4294
нормандского	-4295
▁предложения	-4296
▁предусматри	-4297
▁прекращение	-4298
▁необходимости	-4299
ha	-4300
АД	-4301
Те	-4302
яр	-4303
art	-4304
ess	-4305
»),	-4306
гии	-4307
дем	-4308
дио	-4309
жал	-4310
зже	-4311
мый	-4312
мым	-4313
нки	-4314
чис	-4315
▁ны	-4316
ight	-4317
атра	-4318
диви	-4319
екре	-4320
ерке	-4321
кает	-4322
роне	-4323
фика	-4324
чери	-4325
шает	-4326
▁300	-4327
▁Mic	-4328
▁Аль	-4329
▁Джо	-4330
▁Лев	-4331
▁Тем	-4332
▁Хан	-4333
▁анг	-4334
▁ано	-4335
▁вес	-4336
▁вет	-4337
▁выи	-4338
▁еже	-4339
дации	-4340
жению	-4341
рение	-4342
стоит	-4343
щенко	-4344
▁2013	-4345
▁Джон	-4346
▁Кали	-4347
▁Крым	-4348
▁бесе	-4349
▁веще	-4350
▁взаи	-4351
▁вице	-4352
▁днем	-4353
▁дума	-4354
▁зави	-4355
▁исте	-4356
▁конц	-4357
▁коро	-4358
▁льго	-4359
▁опыт	-4360
▁отец	-4361
▁певи	-4362
▁поез	-4363
▁пути	-4364
▁секу	-4365
▁сним	-4366
▁спас	-4367
▁судо	-4368
▁цены	-4369
▁чаще	-4370
▁штат	-4371
rosoft	-4372
бсолют	-4373
вшихся	-4374
еклама	-4375
ждении	-4376
льными	-4377
стойчи	-4378
тирова	-4379
▁Когда	-4380
▁Пожар	-4381
▁Позже	-4382
▁Север	-4383
▁возму	-4384
▁вышла	-4385
▁двига	-4386
▁диало	-4387
▁имуще	-4388
▁кадра	-4389
▁нефть	-4390
▁отмен	-4391
▁плате	-4392
▁потен	-4393
▁свадь	-4394
▁снова	-4395
▁труда	-4396
▁услуг	-4397
▁числа	-4398
зирован	-4399
ременно	-4400
следова	-4401
тельным	-4402
▁Мурман	-4403
▁Помимо	-4404
▁Почему	-4405
▁бренда	-4406
▁выхода	-4407
▁группе	-4408
▁заявля	-4409
▁здания	-4410
▁начина	-4411
▁обязан	-4412
▁подпис	-4413
▁пользу	-4414
▁поправ	-4415
▁провел	-4416
▁разных	-4417
▁решили	-4418
▁январе	-4419
ственных	-4420
ствовали	-4421
▁дивиден	-4422
▁крупных	-4423
▁отреаги	-4424
правления	-4425
▁Шеремета	-4426
▁министер	-4427
▁погибших	-4428
▁политика	-4429
▁прошлого	-4430
▁разработ	-4431
▁рассчиты	-4432
▁ситуацию	-4433
▁убийства	-4434
▁Microsoft	-4435
▁высказыва	-4436
▁доставили	-4437
▁поддержку	-4438
▁последний	-4439
▁участники	-4440
конференции	-4441
▁Белоруссии	-4442
▁Международ	-4443
▁Московской	-4444
▁достаточно	-4445
▁опрошенных	-4446
▁отмечается	-4447
▁приостанов	-4448
▁публикации	-4449
▁террористи	-4450
▁украинским	-4451
▁Олимпийских	-4452
▁американский	-4453
▁председатель	-4454
▁антидопингового	-4455
-4	-4456
?»	-4457
ov	-4458
СК	-4459
Чи	-4460
com	-4461
rou	-4462
брь	-4463
дах	-4464
дел	-4465
ест	-4466
зин	-4467
зор	-4468
мор	-4469
нга	-4470
нит	-4471
руя	-4472
ссы	-4473
тар	-4474
тик	-4475
тым	-4476
ьми	-4477
эта	-4478
▁(3	-4479
▁«1	-4480
▁ФР	-4481
▁Фе	-4482
▁Чи	-4483
▁Ши	-4484
▁ат	-4485
▁тю	-4486
бора	-4487
дила	-4488
емые	-4489
енин	-4490
клад	-4491
пись	-4492
ющем	-4493
▁5,5	-4494
▁Ему	-4495
▁кре	-4496
▁лич	-4497
▁пес	-4498
▁убе	-4499
везды	-4500
дирек	-4501
лексе	-4502
ляцию	-4503
тором	-4504
щений	-4505
▁Заги	-4506
▁всей	-4507
▁запа	-4508
▁игры	-4509
▁люби	-4510
▁охва	-4511
▁поня	-4512
▁прис	-4513
▁семи	-4514
▁укра	-4515
▁утра	-4516
▁физи	-4517
▁хоте	-4518
▁член	-4519
имость	-4520
служба	-4521
▁Берез	-4522
▁Причи	-4523
▁Такое	-4524
▁адрес	-4525
▁верто	-4526
▁вмеша	-4527
▁заслу	-4528
▁затро	-4529
▁колон	-4530
▁повре	-4531
▁преми	-4532
▁самой	-4533
▁секре	-4534
▁турец	-4535
▁форми	-4536
▁хочет	-4537
▁школы	-4538
буждено	-4539
работки	-4540
▁Европе	-4541
▁взаимо	-4542
▁достиг	-4543
▁запрет	-4544
▁изобра	-4545
▁кадрах	-4546
▁мнение	-4547
▁молоды	-4548
▁начать	-4549
▁недели	-4550
▁обнару	-4551
▁особом	-4552
▁партне	-4553
▁полага	-4554
▁посоль	-4555
▁потока	-4556
▁ракеты	-4557
▁решила	-4558
▁сканда	-4559
▁ставка	-4560
аккаунте	-4561
ритикова	-4562
тельного	-4563
тельстве	-4564
тической	-4565
▁Тунберг	-4566
▁авианос	-4567
▁актриса	-4568
▁девушки	-4569
▁момента	-4570
▁назвала	-4571
▁первого	-4572
▁посовет	-4573
▁постоян	-4574
▁пройдет	-4575
▁процеду	-4576
▁рестора	-4577
▁следова	-4578
▁степени	-4579
▁столкну	-4580
▁третьем	-4581
▁экологи	-4582
городской	-4583
▁границей	-4584
▁подписал	-4585
▁представ	-4586
▁признали	-4587
▁проходит	-4588
▁регионах	-4589
▁регионов	-4590
▁уточнили	-4591
▁ведомстве	-4592
▁двусторон	-4593
▁находятся	-4594
▁обращения	-4595
▁отстранил	-4596
▁поддержка	-4597
▁последнее	-4598
▁продуктов	-4599
▁российско	-4600
▁свидетель	-4601
▁экспертов	-4602
▁губернатор	-4603
▁интеллекта	-4604
▁украинских	-4605
▁экстремист	-4606
▁военнослужа	-4607
▁газопровода	-4608
▁исследовании	-4609
▁раскритикова	-4610
▁администрации	-4611
▁искусственного	-4612
Да	-4613
Ме	-4614
НТ	-4615
йд	-4616
ус	-4617
-2»	-4618
Мин	-4619
бий	-4620
ерг	-4621
ону	-4622
под	-4623
рез	-4624
цем	-4625
цуз	-4626
щер	-4627
юнх	-4628
▁83	-4629
▁IT	-4630
▁ок	-4631
гать	-4632
ехал	-4633
жном	-4634
защи	-4635
испо	-4636
круг	-4637
лово	-4638
нтов	-4639
рази	-4640
рина	-4641
сами	-4642
ссию	-4643
стью	-4644
▁ДНР	-4645
▁бир	-4646
▁зри	-4647
▁кад	-4648
▁пад	-4649
▁рак	-4650
▁реа	-4651
▁сег	-4652
▁тай	-4653
▁тон	-4654
▁уви	-4655
▁учи	-4656
▁фар	-4657
Украи	-4658
жного	-4659
назна	-4660
рукту	-4661
совер	-4662
форми	-4663
▁Поро	-4664
▁визи	-4665
▁выну	-4666
▁демо	-4667
▁злоу	-4668
▁избе	-4669
▁надо	-4670
▁обру	-4671
▁отли	-4672
▁приш	-4673
▁розы	-4674
▁руку	-4675
▁силы	-4676
▁сосе	-4677
релизе	-4678
рудова	-4679
ставил	-4680
ческая	-4681
▁Слова	-4682
▁гости	-4683
▁жертв	-4684
▁имени	-4685
▁карти	-4686
▁летом	-4687
▁нефти	-4688
▁нынеш	-4689
▁подар	-4690
▁подру	-4691
▁прожи	-4692
▁прось	-4693
▁семьи	-4694
▁устро	-4695
▁факту	-4696
▁фонда	-4697
▁чечен	-4698
министр	-4699
ствовал	-4700
ходится	-4701
▁Кремля	-4702
▁активи	-4703
▁введен	-4704
▁вокруг	-4705
▁вызыва	-4706
▁десять	-4707
▁найден	-4708
▁неболь	-4709
▁обраща	-4710
▁первой	-4711
▁портал	-4712
▁привер	-4713
▁продли	-4714
▁решить	-4715
▁сделки	-4716
компании	-4717
▁выпуска	-4718
▁границы	-4719
▁департа	-4720
▁женщины	-4721
▁масштаб	-4722
▁обороны	-4723
▁портала	-4724
▁порядка	-4725
▁поступа	-4726
▁потерпе	-4727
▁проводи	-4728
▁проекты	-4729
▁проходи	-4730
▁структу	-4731
▁Инцидент	-4732
▁Компания	-4733
▁компанию	-4734
▁комплекс	-4735
▁определи	-4736
▁остались	-4737
▁проведен	-4738
▁Порошенко	-4739
▁Президент	-4740
▁оборудова	-4741
▁отказался	-4742
▁проводить	-4743
▁продукции	-4744
▁человеком	-4745
▁Всемирного	-4746
▁подготовку	-4747
▁территорию	-4748
▁губернатора	-4749
▁соглашениям	-4750
▁запланирован	-4751
▁стабилизации	-4752
▁использование	-4753
▁подозреваемых	-4754
▁произошедшего	-4755
▁Великобритании	-4756
4-	-4757
AS	-4758
ee	-4759
iv	-4760
Бу	-4761
Лу	-4762
УС	-4763
▁t	-4764
box	-4765
ore	-4766
Как	-4767
ера	-4768
жки	-4769
пар	-4770
пец	-4771
худ	-4772
чке	-4773
▁(4	-4774
▁ВМ	-4775
▁Мы	-4776
▁Ша	-4777
▁ан	-4778
▁ск	-4779
Ведо	-4780
дают	-4781
дида	-4782
енса	-4783
либо	-4784
лота	-4785
нией	-4786
обща	-4787
овые	-4788
овых	-4789
сточ	-4790
тный	-4791
тура	-4792
чики	-4793
щему	-4794
▁Вто	-4795
▁Гон	-4796
▁Дей	-4797
▁Кри	-4798
▁Пав	-4799
▁Роб	-4800
▁бар	-4801
▁бри	-4802
▁взы	-4803
▁всю	-4804
▁доб	-4805
▁мер	-4806
▁мир	-4807
▁пле	-4808
▁убы	-4809
▁фра	-4810
▁хок	-4811
делец	-4812
менко	-4813
потре	-4814
скоре	-4815
товой	-4816
▁2021	-4817
▁Кады	-4818
▁Один	-4819
▁Позд	-4820
▁агре	-4821
▁деше	-4822
▁край	-4823
▁края	-4824
▁нако	-4825
▁неда	-4826
▁ряда	-4827
▁стри	-4828
▁суде	-4829
▁судь	-4830
▁упал	-4831
▁фонд	-4832
ленный	-4833
руется	-4834
центра	-4835
ченные	-4836
ченных	-4837
▁Маска	-4838
▁Медве	-4839
▁Следу	-4840
▁боеви	-4841
▁кораб	-4842
▁кризи	-4843
▁марки	-4844
▁мозга	-4845
▁порно	-4846
▁профи	-4847
▁сексу	-4848
▁утром	-4849
Украина	-4850
станции	-4851
▁Киевом	-4852
▁алкого	-4853
▁завери	-4854
▁зареги	-4855
▁защиты	-4856
▁поводу	-4857
▁покину	-4858
▁пришла	-4859
▁путеше	-4860
▁регуля	-4861
▁своими	-4862
▁связан	-4863
рованных	-4864
ствующих	-4865
▁активов	-4866
▁возраст	-4867
▁встрече	-4868
▁главный	-4869
▁кандида	-4870
▁климата	-4871
▁колонке	-4872
▁минским	-4873
▁ремонта	-4874
▁сократи	-4875
▁статусе	-4876
▁Григорию	-4877
▁говорить	-4878
▁инициати	-4879
▁инцидент	-4880
▁исполком	-4881
▁особенно	-4882
▁показыва	-4883
▁постанов	-4884
▁придется	-4885
▁продукты	-4886
▁ситуация	-4887
Российский	-4888
▁Березкину	-4889
▁Исследова	-4890
▁Краснодар	-4891
▁аэропорту	-4892
▁журналист	-4893
▁знаменито	-4894
▁поколения	-4895
▁предназна	-4896
▁родителей	-4897
▁состоянию	-4898
▁увеличить	-4899
▁Российская	-4900
▁зарегистри	-4901
▁респондент	-4902
▁следующего	-4903
▁становится	-4904
▁выступления	-4905
▁практически	-4906
▁предложение	-4907
▁чемпионатах	-4908
▁договорились	-4909
▁Представитель	-4910
▁действительно	-4911
▁принадлежащее	-4912
▁приверженность	-4913
ap	-4914
Го	-4915
Ту	-4916
ец	-4917
ид	-4918
Наф	-4919
Нем	-4920
дий	-4921
едж	-4922
лке	-4923
мма	-4924
фин	-4925
чит	-4926
▁35	-4927
▁45	-4928
▁48	-4929
▁80	-4930
▁Cl	-4931
▁Жи	-4932
▁ды	-4933
roup	-4934
бота	-4935
брал	-4936
гают	-4937
емой	-4938
емся	-4939
жета	-4940
кант	-4941
лона	-4942
мера	-4943
нуть	-4944
рого	-4945
след	-4946
сона	-4947
тога	-4948
ходе	-4949
ципа	-4950
чена	-4951
▁600	-4952
▁Арс	-4953
▁Дже	-4954
▁Оль	-4955
▁Пла	-4956
▁ФСБ	-4957
▁аку	-4958
▁бой	-4959
▁гео	-4960
▁муж	-4961
▁сла	-4962
▁хва	-4963
ентом	-4964
ловой	-4965
обнов	-4966
пуска	-4967
разде	-4968
циона	-4969
▁Пере	-4970
▁ауди	-4971
▁вспо	-4972
▁геро	-4973
▁забы	-4974
▁инци	-4975
▁смен	-4976
▁эксп	-4977
▁ядер	-4978
альных	-4979
ческим	-4980
ческом	-4981
▁Group	-4982
▁Крыма	-4983
▁Макси	-4984
▁годов	-4985
▁домой	-4986
▁конта	-4987
▁опров	-4988
▁резко	-4989
▁самые	-4990
▁самый	-4991
▁супер	-4992
Нафтога	-4993
льность	-4994
пустили	-4995
▁Грузии	-4996
▁Саммит	-4997
▁аварий	-4998
▁врачей	-4999
▁выборы	-5000
▁выводу	-5001
▁выпуск	-5002
▁детьми	-5003
▁коллед	-5004
▁опроса	-5005
▁отстав	-5006
▁оценил	-5007
▁палаты	-5008
▁пережи	-5009
▁подвер	-5010
▁подклю	-5011
▁сделал	-5012
▁смартф	-5013
▁совета	-5014
▁Медведе	-5015
▁ассоциа	-5016
▁минские	-5017
▁одобрил	-5018
▁перспек	-5019
▁питания	-5020
▁столицы	-5021
▁устойчи	-5022
▁Краснояр	-5023
▁военного	-5024
▁возможно	-5025
▁госсекре	-5026
▁заключил	-5027
▁клиентов	-5028
▁культуры	-5029
▁напомнил	-5030
▁независи	-5031
▁объявили	-5032
▁пассажир	-5033
▁политику	-5034
▁самолета	-5035
▁туристов	-5036
▁некоторых	-5037
▁противоре	-5038
▁результат	-5039
▁триллиона	-5040
▁автомобиль	-5041
▁основатель	-5042
▁показатель	-5043
▁проведение	-5044
▁распростра	-5045
▁соглашение	-5046
▁спортсмены	-5047
▁украинские	-5048
▁установить	-5049
▁журналистов	-5050
▁мероприятия	-5051
▁подчеркнула	-5052
▁увеличилась	-5053
▁недвижимость	-5054
▁пользователь	-5055
▁производства	-5056
▁строительство	-5057
▁самоуправления	-5058
▁урегулирования	-5059
▁экономического	-5060
▁экстремистской	-5061
%"	-5062
**	-5063
ag	-5064
СУ	-5065
ал	-5066
фы	-5067
яз	-5068
dit	-5069
Пра	-5070
Суд	-5071
бан	-5072
гер	-5073
дан	-5074
зай	-5075
зий	-5076
зму	-5077
зон	-5078
кты	-5079
лое	-5080
лые	-5081
сии	-5082
чью	-5083
ьян	-5084
▁70	-5085
▁iP	-5086
▁ВВ	-5087
▁зу	-5088
▁рэ	-5089
▁ху	-5090
esla	-5091
Меры	-5092
вшую	-5093
гова	-5094
дать	-5095
динг	-5096
доро	-5097
жали	-5098
жела	-5099
йдут	-5100
кина	-5101
лете	-5102
лоща	-5103
новь	-5104
нули	-5105
няют	-5106
ондо	-5107
рица	-5108
рома	-5109
▁IPO	-5110
▁Анг	-5111
▁Гор	-5112
▁Кор	-5113
▁Тре	-5114
▁дал	-5115
▁нес	-5116
▁ото	-5117
▁роз	-5118
▁тан	-5119
▁тен	-5120
▁уро	-5121
ждены	-5122
лагом	-5123
летия	-5124
овать	-5125
рению	-5126
тория	-5127
чению	-5128
чером	-5129
▁Вино	-5130
▁Олег	-5131
▁врач	-5132
▁един	-5133
▁жить	-5134
▁заме	-5135
▁инду	-5136
▁кило	-5137
▁кого	-5138
▁пора	-5139
▁преи	-5140
▁прос	-5141
▁тела	-5142
▁тоже	-5143
▁удар	-5144
▁улуч	-5145
▁цели	-5146
водить	-5147
еркель	-5148
нитори	-5149
ремьер	-5150
тирует	-5151
▁Tesla	-5152
▁Андре	-5153
▁Игорь	-5154
▁Киеву	-5155
▁Ленин	-5156
▁Сберб	-5157
▁Чечен	-5158
▁банка	-5159
▁валют	-5160
▁ведет	-5161
▁ведут	-5162
▁вновь	-5163
▁выгля	-5164
▁граду	-5165
▁друго	-5166
▁занял	-5167
▁какой	-5168
▁лицен	-5169
▁лично	-5170
▁новую	-5171
▁орден	-5172
▁пишут	-5173
▁подка	-5174
▁посвя	-5175
▁протя	-5176
▁прямо	-5177
▁радио	-5178
▁секун	-5179
Реклама	-5180
▁Алексе	-5181
▁Вместе	-5182
▁Михаил	-5183
▁Украин	-5184
▁взыска	-5185
▁голову	-5186
▁готова	-5187
▁девять	-5188
▁детали	-5189
▁индекс	-5190
▁машины	-5191
▁обстоя	-5192
▁общего	-5193
▁отдыха	-5194
▁помочь	-5195
▁попала	-5196
▁пришли	-5197
▁размер	-5198
▁силови	-5199
▁флагом	-5200
▁хотели	-5201
Американ	-5202
трудники	-5203
▁Дональд	-5204
▁Меркель	-5205
▁Позднее	-5206
▁бюджета	-5207
▁выросло	-5208
▁границе	-5209
▁площадь	-5210
▁повышен	-5211
▁правила	-5212
▁публику	-5213
▁сериала	-5214
▁событий	-5215
▁стандар	-5216
▁телевид	-5217
▁техники	-5218
▁транзит	-5219
президент	-5220
прокурату	-5221
▁Молдавии	-5222
▁введение	-5223
▁возобнов	-5224
▁вопросам	-5225
▁заметили	-5226
▁истекает	-5227
▁квартиру	-5228
▁килограм	-5229
▁комменти	-5230
▁написала	-5231
▁операцию	-5232
▁остается	-5233
▁подразде	-5234
▁поправки	-5235
▁поставок	-5236
▁проверку	-5237
▁транзита	-5238
▁экспорта	-5239
новременно	-5240
▁Верховной	-5241
▁заявления	-5242
▁мошенниче	-5243
▁наказание	-5244
▁платформы	-5245
▁положений	-5246
▁получения	-5247
▁следующий	-5248
▁телеканал	-5249
▁возгорание	-5250
▁дипломатов	-5251
▁инвестиций	-5252
▁населенных	-5253
▁находились	-5254
▁посольства	-5255
▁продолжает	-5256
▁расположен	-5257
▁устройства	-5258
▁генеральный	-5259
▁дополнитель	-5260
▁правоохрани	-5261
▁российскими	-5262
▁договориться	-5263
▁строительства	-5264
2-	-5265
BC	-5266
ax	-5267
ik	-5268
Вы	-5269
Ра	-5270
Ри	-5271
йт	-5272
эм	-5273
all	-5274
ash	-5275
you	-5276
Мос	-5277
бил	-5278
бри	-5279
вай	-5280
дру	-5281
зой	-5282
кте	-5283
лаг	-5284
лая	-5285
обо	-5286
роз	-5287
рус	-5288
рье	-5289
тье	-5290
▁33	-5291
▁Тю	-5292
▁въ	-5293
дина	-5294
дной	-5295
каде	-5296
кому	-5297
куро	-5298
лень	-5299
мога	-5300
нале	-5301
ньше	-5302
овое	-5303
пыты	-5304
рамп	-5305
реза	-5306
риль	-5307
роде	-5308
стаи	-5309
твор	-5310
тика	-5311
тник	-5312
удов	-5313
форм	-5314
цами	-5315
шают	-5316
▁20-	-5317
▁Win	-5318
▁Ара	-5319
▁Вит	-5320
▁ФРГ	-5321
▁бед	-5322
▁дро	-5323
▁зер	-5324
▁ниж	-5325
▁ори	-5326
▁ран	-5327
▁сим	-5328
▁сне	-5329
▁сче	-5330
▁хра	-5331
Немед	-5332
береж	-5333
декса	-5334
драво	-5335
етера	-5336
ковой	-5337
логер	-5338
манов	-5339
серва	-5340
стить	-5341
тамбу	-5342
четам	-5343
шнего	-5344
▁Маск	-5345
▁Рады	-5346
▁буты	-5347
▁дочь	-5348
▁мето	-5349
▁план	-5350
▁реак	-5351
▁сама	-5352
▁спро	-5353
▁сына	-5354
▁ухуд	-5355
▁ущер	-5356
Продол	-5357
вшиеся	-5358
летнюю	-5359
ложили	-5360
лощадь	-5361
мского	-5362
начала	-5363
номочи	-5364
чается	-5365
чением	-5366
▁Sport	-5367
▁Киеве	-5368
▁Китай	-5369
▁Через	-5370
▁атаки	-5371
▁возбу	-5372
▁возду	-5373
▁возле	-5374
▁годом	-5375
▁дизай	-5376
▁кибер	-5377
▁линей	-5378
▁образ	-5379
▁предъ	-5380
▁призы	-5381
▁присо	-5382
▁продю	-5383
▁разру	-5384
▁район	-5385
▁сетях	-5386
▁стаби	-5387
▁судов	-5388
▁транс	-5389
▁центр	-5390
ленного	-5391
мотреть	-5392
пустила	-5393
служива	-5394
ститута	-5395
тельном	-5396
ционные	-5397
ческими	-5398
▁Максим	-5399
▁Стамбу	-5400
▁Центра	-5401
▁автобу	-5402
▁визита	-5403
▁войска	-5404
▁восьми	-5405
▁делает	-5406
▁другом	-5407
▁лишили	-5408
▁минима	-5409
▁модели	-5410
▁памяти	-5411
▁первые	-5412
▁премии	-5413
▁принес	-5414
▁раньше	-5415
▁смогли	-5416
▁сообще	-5417
▁такого	-5418
▁угрозы	-5419
▁услуги	-5420
▁частью	-5421
Северный	-5422
▁Олимпиа	-5423
▁Первого	-5424
▁военной	-5425
▁военные	-5426
▁выплаты	-5427
▁главных	-5428
▁космети	-5429
▁мужчину	-5430
▁надежду	-5431
▁пациент	-5432
▁переста	-5433
▁побереж	-5434
▁позиции	-5435
▁поможет	-5436
▁принято	-5437
▁районах	-5438
▁расходы	-5439
▁ремонте	-5440
▁связано	-5441
▁сопрово	-5442
▁сработа	-5443
▁условий	-5444
▁условия	-5445
▁читайте	-5446
тельности	-5447
▁Левченко	-5448
▁Министер	-5449
▁комиссии	-5450
▁компенса	-5451
▁общества	-5452
▁операций	-5453
▁получать	-5454
▁привести	-5455
▁пришлось	-5456
▁проверки	-5457
▁разговор	-5458
▁решением	-5459
▁середине	-5460
▁создание	-5461
▁составил	-5462
▁составит	-5463
▁текущего	-5464
совершенно	-5465
▁заседания	-5466
▁изменений	-5467
▁отдельных	-5468
▁полномочи	-5469
▁программе	-5470
▁транспорт	-5471
Немедленные	-5472
Продолжение	-5473
▁Предполага	-5474
▁гражданина	-5475
▁источников	-5476
▁организова	-5477
▁поддержива	-5478
▁устройство	-5479
▁возвращения	-5480
▁образования	-5481
▁обязанности	-5482
▁организаций	-5483
▁федерального	-5484
▁расследования	-5485
▁антидопинговое	-5486
▁промышленности	-5487
SA	-5488
ab	-5489
ie	-5490
mi	-5491
ow	-5492
ry	-5493
Ар	-5494
Ки	-5495
)."	-5496
:00	-5497
and	-5498
ild	-5499
per	-5500
ran	-5501
АДА	-5502
ата	-5503
ген	-5504
дам	-5505
дап	-5506
дия	-5507
ква	-5508
лях	-5509
мур	-5510
нта	-5511
рос	-5512
тые	-5513
ура	-5514
фри	-5515
цам	-5516
▁$2	-5517
▁Ал	-5518
▁Лю	-5519
▁ам	-5520
▁чт	-5521
dows	-5522
hone	-5523
Руса	-5524
верх	-5525
дела	-5526
емон	-5527
ести	-5528
кети	-5529
клон	-5530
куль	-5531
меся	-5532
наси	-5533
нная	-5534
плей	-5535
суль	-5536
тием	-5537
хани	-5538
▁ЛНР	-5539
▁Нью	-5540
▁Объ	-5541
▁Ско	-5542
▁ТНТ	-5543
▁Хар	-5544
▁Шта	-5545
▁взя	-5546
▁дни	-5547
▁зай	-5548
▁мае	-5549
▁меч	-5550
▁мно	-5551
▁ока	-5552
▁сих	-5553
▁хол	-5554
young	-5555
Трамп	-5556
УСАДА	-5557
анали	-5558
везда	-5559
ждает	-5560
жений	-5561
канал	-5562
лигар	-5563
мотря	-5564
ровен	-5565
стрен	-5566
чиков	-5567
щению	-5568
▁Джор	-5569
▁Марк	-5570
▁Поль	-5571
▁Спор	-5572
▁адап	-5573
▁диаг	-5574
▁жало	-5575
▁идею	-5576
▁лицо	-5577
▁обща	-5578
▁охра	-5579
▁ошиб	-5580
▁палу	-5581
▁пись	-5582
▁похи	-5583
▁роль	-5584
▁сайт	-5585
▁сами	-5586
▁силь	-5587
▁тему	-5588
▁удов	-5589
▁учеб	-5590
▁флаг	-5591
▁холо	-5592
вались	-5593
помина	-5594
рована	-5595
ствием	-5596
харова	-5597
ческое	-5598
▁Лондо	-5599
▁Петро	-5600
▁Сирии	-5601
▁Ханго	-5602
▁болез	-5603
▁борту	-5604
▁врача	-5605
▁давно	-5606
▁двумя	-5607
▁делам	-5608
▁друга	-5609
▁желез	-5610
▁играх	-5611
▁иметь	-5612
▁крити	-5613
▁новом	-5614
▁отвер	-5615
▁препо	-5616
▁привы	-5617
▁прием	-5618
▁суббо	-5619
▁ухода	-5620
▁языке	-5621
Русагро	-5622
▁Конгре	-5623
▁Сообща	-5624
▁ветера	-5625
▁грозит	-5626
▁делега	-5627
▁дороги	-5628
▁задума	-5629
▁изнаси	-5630
▁испыты	-5631
▁минист	-5632
▁мужчин	-5633
▁оппози	-5634
▁отрица	-5635
▁планах	-5636
▁подвод	-5637
▁понять	-5638
▁прибыл	-5639
▁присво	-5640
▁растет	-5641
▁смотре	-5642
▁списке	-5643
▁спроси	-5644
▁ставку	-5645
▁статус	-5646
▁финанс	-5647
градской	-5648
действия	-5649
директор	-5650
начально	-5651
рованной	-5652
ственным	-5653
стребова	-5654
▁Windows	-5655
▁вопросе	-5656
▁заверши	-5657
▁занимал	-5658
▁запреща	-5659
▁запуска	-5660
▁зарубеж	-5661
▁исполни	-5662
▁ликвиди	-5663
▁меньшей	-5664
▁отметив	-5665
▁позицию	-5666
▁полгода	-5667
▁поручил	-5668
▁порядке	-5669
▁провели	-5670
▁сервиса	-5671
▁странах	-5672
▁топливо	-5673
▁удовлет	-5674
▁центров	-5675
▁экстрен	-5676
Ведомости	-5677
Петербург	-5678
▁Дональда	-5679
▁временно	-5680
▁главного	-5681
▁западных	-5682
▁ключевых	-5683
▁мальчика	-5684
▁назначен	-5685
▁начались	-5686
▁основном	-5687
▁отказыва	-5688
▁отменить	-5689
▁пленными	-5690
▁преимуще	-5691
▁проектов	-5692
▁пытались	-5693
▁регистра	-5694
▁рождения	-5695
▁самостоя	-5696
▁среднего	-5697
▁странами	-5698
▁торговой	-5699
▁участием	-5700
▁участков	-5701
▁Следующую	-5702
▁качествен	-5703
▁нарушений	-5704
▁обслужива	-5705
▁отношений	-5706
▁попросила	-5707
▁потратить	-5708
▁появилось	-5709
▁признался	-5710
▁произошла	-5711
▁реализова	-5712
▁регулярно	-5713
▁Республики	-5714
▁Хангошвили	-5715
▁внутренних	-5716
▁завершения	-5717
▁изнасилова	-5718
▁крупнейших	-5719
▁официально	-5720
▁пассажиров	-5721
▁поддержали	-5722
▁подсчитали	-5723
▁подтвердил	-5724
▁призналась	-5725
▁происходит	-5726
▁собеседник	-5727
▁фотографии	-5728
▁чемпионата	-5729
▁чиновников	-5730
▁европейских	-5731
▁увеличилось	-5732
▁установлено	-5733
▁Белгородской	-5734
▁Следственного	-5735
▁регионального	-5736
▁дополнительные	-5737
-8	-5738
12	-5739
9-	-5740
FC	-5741
ci	-5742
th	-5743
АО	-5744
Об	-5745
Ци	-5746
дю	-5747
ack	-5748
est	-5749
ock	-5750
вар	-5751
вят	-5752
гип	-5753
доз	-5754
дор	-5755
дям	-5756
енч	-5757
жев	-5758
кер	-5759
лад	-5760
мир	-5761
мяг	-5762
рат	-5763
рту	-5764
сем	-5765
ссу	-5766
тка	-5767
чез	-5768
яют	-5769
▁38	-5770
▁47	-5771
▁90	-5772
▁Ор	-5773
▁ум	-5774
▁ши	-5775
ress	-5776
дами	-5777
дний	-5778
емым	-5779
жить	-5780
лери	-5781
лыша	-5782
нное	-5783
писы	-5784
поль	-5785
рачи	-5786
сера	-5787
спер	-5788
ссер	-5789
стая	-5790
тает	-5791
телю	-5792
тила	-5793
шими	-5794
щены	-5795
ябрь	-5796
▁Pro	-5797
▁Али	-5798
▁Ниж	-5799
▁Спе	-5800
▁Чеч	-5801
▁Япо	-5802
▁вид	-5803
▁диз	-5804
▁дра	-5805
▁нор	-5806
▁нуж	-5807
▁сле	-5808
▁сна	-5809
▁шли	-5810
близи	-5811
вшими	-5812
вшись	-5813
дерни	-5814
динга	-5815
ктной	-5816
ктора	-5817
ллиар	-5818
ложил	-5819
ногие	-5820
номор	-5821
охран	-5822
путат	-5823
ронеж	-5824
снова	-5825
стили	-5826
стрии	-5827
толог	-5828
торые	-5829
▁(...	-5830
▁Time	-5831
▁Авто	-5832
▁Кобз	-5833
▁Миню	-5834
▁Нико	-5835
▁Петр	-5836
▁Побе	-5837
▁Юрия	-5838
▁води	-5839
▁граф	-5840
▁доке	-5841
▁жили	-5842
▁заин	-5843
▁июня	-5844
▁навы	-5845
▁невы	-5846
▁попы	-5847
▁появ	-5848
▁преж	-5849
▁рели	-5850
▁робо	-5851
▁руки	-5852
▁свет	-5853
▁скла	-5854
▁трем	-5855
▁тюрь	-5856
▁функ	-5857
▁швед	-5858
▁школ	-5859
Forbes	-5860
Бывший	-5861
говари	-5862
женных	-5863
здание	-5864
ленную	-5865
никова	-5866
способ	-5867
титься	-5868
честву	-5869
▁Девуш	-5870
▁Запад	-5871
▁Новый	-5872
▁Павел	-5873
▁Павла	-5874
▁Право	-5875
▁альян	-5876
▁блоге	-5877
▁глубо	-5878
▁годах	-5879
▁демон	-5880
▁диску	-5881
▁доста	-5882
▁задол	-5883
▁канал	-5884
▁корот	-5885
▁кроме	-5886
▁огром	-5887
▁отказ	-5888
▁патру	-5889
▁подня	-5890
▁посла	-5891
▁прока	-5892
▁рядом	-5893
▁слуша	-5894
▁созна	-5895
▁страх	-5896
▁сцена	-5897
▁тради	-5898
▁учени	-5899
▁хирур	-5900
▁юриди	-5901
Извести	-5902
ведении	-5903
есмотря	-5904
льности	-5905
новения	-5906
фициаль	-5907
чеством	-5908
▁Вопрос	-5909
▁Послед	-5910
▁внести	-5911
▁воздуш	-5912
▁девяти	-5913
▁динами	-5914
▁звание	-5915
▁коммер	-5916
▁концер	-5917
▁многих	-5918
▁настро	-5919
▁облада	-5920
▁оружия	-5921
▁остров	-5922
▁первое	-5923
▁перево	-5924
▁появля	-5925
▁правам	-5926
▁прошла	-5927
▁района	-5928
▁сериал	-5929
▁смерть	-5930
▁студии	-5931
▁театра	-5932
▁фигури	-5933
ственные	-5934
тересова	-5935
▁Евгений	-5936
▁Лаврова	-5937
▁абсолют	-5938
▁атакова	-5939
▁богатей	-5940
▁большим	-5941
▁большой	-5942
▁влияние	-5943
▁доверия	-5944
▁журнала	-5945
▁заслуги	-5946
▁изданию	-5947
▁каждого	-5948
▁карьеру	-5949
▁команду	-5950
▁комплек	-5951
▁маркети	-5952
▁мировых	-5953
▁пенсион	-5954
▁площади	-5955
▁получит	-5956
▁привело	-5957
▁принять	-5958
▁рассмот	-5959
▁решений	-5960
▁сектора	-5961
▁составе	-5962
▁станции	-5963
▁сторону	-5964
▁француз	-5965
▁электри	-5966
тического	-5967
▁Загитова	-5968
▁владелец	-5969
▁градусов	-5970
▁касается	-5971
▁комиссия	-5972
▁мирового	-5973
▁площадки	-5974
▁попросил	-5975
▁продукта	-5976
▁убийству	-5977
▁эффектив	-5978
дравоохран	-5979
▁вернуться	-5980
▁документе	-5981
▁должности	-5982
▁известный	-5983
▁инцидента	-5984
▁настоящий	-5985
▁партнеров	-5986
▁поделился	-5987
▁постоянно	-5988
▁программа	-5989
▁программу	-5990
▁связанных	-5991
▁Российской	-5992
▁возгорания	-5993
▁востребова	-5994
▁обратилась	-5995
▁популярных	-5996
▁продолжать	-5997
▁социальной	-5998
▁территорий	-5999
▁аналогичном	-6000
▁ограничений	-6001
▁полицейских	-6002
▁предприятий	-6003
▁участвовать	-6004
▁Генпрокурату	-6005
▁несовершенно	-6006
▁отреагировал	-6007
▁респондентов	-6008
▁мошенничестве	-6009
▁опубликованном	-6010
▁соответственно	-6011
▁государственной	-6012
▁представителями	-6013
IT	-6014
ob	-6015
op	-6016
um	-6017
До	-6018
КС	-6019
Ли	-6020
Он	-6021
Ре	-6022
ТП	-6023
ик	-6024
эн	-6025
▁c	-6026
▁p	-6027
end	-6028
ian	-6029
ine	-6030
old	-6031
uss	-6032
Она	-6033
бок	-6034
вец	-6035
лец	-6036
лик	-6037
лым	-6038
люб	-6039
лял	-6040
мия	-6041
оны	-6042
ост	-6043
пси	-6044
стю	-6045
тая	-6046
тит	-6047
тни	-6048
ули	-6049
фан	-6050
чук	-6051
ьют	-6052
эль	-6053
▁34	-6054
▁64	-6055
▁Al	-6056
▁Ch	-6057
▁Аг	-6058
▁Ай	-6059
▁ТВ	-6060
▁вд	-6061
▁ву	-6062
▁уг	-6063
верд	-6064
грал	-6065
делю	-6066
днев	-6067
едже	-6068
езде	-6069
жают	-6070
кипа	-6071
купи	-6072
леко	-6073
лера	-6074
ляет	-6075
мана	-6076
пада	-6077
пром	-6078
риях	-6079
сомо	-6080
ссив	-6081
таль	-6082
тран	-6083
циям	-6084
чают	-6085
чкин	-6086
шний	-6087
штей	-6088
▁Бря	-6089
▁ДТП	-6090
▁Ове	-6091
▁Рай	-6092
▁вас	-6093
▁гор	-6094
▁дис	-6095
▁зво	-6096
▁зву	-6097
▁нам	-6098
▁нед	-6099
▁ска	-6100
▁фир	-6101
Турец	-6102
Число	-6103
еремо	-6104
ждать	-6105
логия	-6106
нении	-6107
ненко	-6108
около	-6109
сторо	-6110
стрее	-6111
тными	-6112
чными	-6113
▁Анка	-6114
▁Воло	-6115
▁Клим	-6116
▁Кузь	-6117
▁Майк	-6118
▁Неко	-6119
▁взор	-6120
▁воск	-6121
▁живу	-6122
▁заво	-6123
▁куро	-6124
▁марш	-6125
▁мере	-6126
▁мужа	-6127
▁музе	-6128
▁наук	-6129
▁нель	-6130
▁нему	-6131
▁нена	-6132
▁отца	-6133
▁резю	-6134
▁смяг	-6135
▁стоя	-6136
▁трое	-6137
▁уско	-6138
▁ушли	-6139
▁фору	-6140
Москов	-6141
естива	-6142
ментом	-6143
нилось	-6144
ниципа	-6145
нского	-6146
потреб	-6147
ровано	-6148
шенные	-6149
▁Times	-6150
▁Амери	-6151
▁Индии	-6152
▁Казах	-6153
▁Кирил	-6154
▁Ольга	-6155
▁Основ	-6156
▁будем	-6157
▁винов	-6158
▁вынес	-6159
▁вырос	-6160
▁высыл	-6161
▁горит	-6162
▁домов	-6163
▁жилищ	-6164
▁жилье	-6165
▁карто	-6166
▁лекар	-6167
▁множе	-6168
▁никто	-6169
▁отклю	-6170
▁преде	-6171
▁редко	-6172
▁рубеж	-6173
▁текст	-6174
▁умень	-6175
▁упали	-6176
▁члена	-6177
Газпром	-6178
Министр	-6179
ального	-6180
анализи	-6181
вердлов	-6182
сточник	-6183
фикации	-6184
экономи	-6185
▁Reddit	-6186
▁Валери	-6187
▁Кремле	-6188
▁Многие	-6189
▁Росста	-6190
▁Теперь	-6191
▁борьбе	-6192
▁внутри	-6193
▁вырази	-6194
▁готовы	-6195
▁дизель	-6196
▁долгов	-6197
▁дочери	-6198
▁звезды	-6199
▁коллек	-6200
▁конкре	-6201
▁лучших	-6202
▁механи	-6203
▁молоде	-6204
▁наличи	-6205
▁настаи	-6206
▁неделе	-6207
▁неделю	-6208
▁олигар	-6209
▁палубе	-6210
▁правда	-6211
▁розыск	-6212
▁самого	-6213
▁сердце	-6214
▁скорее	-6215
▁умерла	-6216
▁ученые	-6217
ственная	-6218
тельными	-6219
▁Виногра	-6220
▁Информа	-6221
▁Кадыров	-6222
▁Москвой	-6223
▁Мошкови	-6224
▁болезни	-6225
▁быстрее	-6226
▁второго	-6227
▁городах	-6228
▁десятку	-6229
▁договор	-6230
▁другими	-6231
▁запечат	-6232
▁компози	-6233
▁лидером	-6234
▁новогод	-6235
▁отстран	-6236
▁оценили	-6237
▁передви	-6238
▁получат	-6239
▁попытки	-6240
▁препода	-6241
▁призыва	-6242
▁связаны	-6243
▁случаев	-6244
▁субботу	-6245
▁условно	-6246
▁фильмов	-6247
Северного	-6248
▁Захарова	-6249
▁Пострада	-6250
▁аэропорт	-6251
▁введения	-6252
▁депутаты	-6253
▁достигла	-6254
▁капитала	-6255
▁консерва	-6256
▁контроли	-6257
▁народных	-6258
▁перечень	-6259
▁половины	-6260
▁пообещал	-6261
▁пытаются	-6262
▁самодель	-6263
▁торговых	-6264
▁турнирах	-6265
Петербурга	-6266
Петербурге	-6267
Российские	-6268
▁Кузьменко	-6269
▁Чеченской	-6270
▁возглавил	-6271
▁должность	-6272
▁испытания	-6273
▁обнаружен	-6274
▁парламент	-6275
▁платформа	-6276
▁поддержки	-6277
▁позволяет	-6278
▁располага	-6279
▁расширить	-6280
▁состоялся	-6281
▁считается	-6282
▁удовлетво	-6283
▁указывает	-6284
езопасности	-6285
▁Российское	-6286
▁вооружения	-6287
▁газопровод	-6288
▁государств	-6289
▁инвестиции	-6290
▁ликвидации	-6291
▁невозможно	-6292
▁обеспечить	-6293
▁приходится	-6294
▁проанализи	-6295
▁протяжении	-6296
▁собираются	-6297
▁согласился	-6298
▁социальных	-6299
▁управление	-6300
▁чемпионаты	-6301
▁Подмосковье	-6302
▁организацию	-6303
▁последствия	-6304
▁предыдущего	-6305
▁распростран	-6306
▁рекомендова	-6307
▁авиакомпании	-6308
▁заинтересова	-6309
▁организацией	-6310
▁потребителей	-6311
▁университета	-6312
▁международной	-6313
▁представителя	-6314
▁производителей	-6315
24	-6316
60	-6317
OR	-6318
if	-6319
ВО	-6320
Ва	-6321
ДР	-6322
ПР	-6323
Пу	-6324
ТБ	-6325
ТВ	-6326
ТС	-6327
То	-6328
ой	-6329
nal	-6330
orn	-6331
Сов	-6332
вуд	-6333
дка	-6334
ерх	-6335
кей	-6336
кри	-6337
кро	-6338
они	-6339
пел	-6340
рят	-6341
цип	-6342
▁37	-6343
▁41	-6344
▁As	-6345
▁II	-6346
▁Le	-6347
▁No	-6348
▁RT	-6349
▁Sh	-6350
▁Th	-6351
▁of	-6352
▁Жу	-6353
▁МС	-6354
▁Чу	-6355
cast	-6356
анче	-6357
бран	-6358
гона	-6359
енью	-6360
жала	-6361
йдер	-6362
коль	-6363
купа	-6364
нита	-6365
ниям	-6366
ован	-6367
орми	-6368
слен	-6369
сора	-6370
ссен	-6371
стям	-6372
тиви	-6373
тода	-6374
торг	-6375
щими	-6376
ьера	-6377
▁150	-6378
▁198	-6379
▁3,5	-6380
▁Фон	-6381
▁био	-6382
▁лай	-6383
▁мыш	-6384
▁пти	-6385
▁сиг	-6386
▁сло	-6387
▁сом	-6388
▁сты	-6389
▁ужа	-6390
▁шан	-6391
брать	-6392
испол	-6393
нился	-6394
нного	-6395
ровок	-6396
слана	-6397
страи	-6398
строи	-6399
тисти	-6400
форму	-6401
явили	-6402
▁Club	-6403
▁Star	-6404
▁Wild	-6405
▁Вене	-6406
▁Лука	-6407
▁Мюнх	-6408
▁Свет	-6409
▁внед	-6410
▁выго	-6411
▁диск	-6412
▁долю	-6413
▁друг	-6414
▁друз	-6415
▁жены	-6416
▁мерт	-6417
▁нара	-6418
▁опти	-6419
▁разо	-6420
▁стек	-6421
▁тому	-6422
▁тонн	-6423
▁упро	-6424
▁цене	-6425
▁чуть	-6426
▁экви	-6427
▁элит	-6428
гового	-6429
жаться	-6430
женный	-6431
жности	-6432
лливуд	-6433
овокуп	-6434
против	-6435
рожден	-6436
росток	-6437
службы	-6438
сульта	-6439
шенной	-6440
▁(...)	-6441
▁2024-	-6442
▁Альфа	-6443
▁Вадим	-6444
▁Восто	-6445
▁Елена	-6446
▁Затем	-6447
▁Слуша	-6448
▁Совет	-6449
▁Такие	-6450
▁будто	-6451
▁владе	-6452
▁вошел	-6453
▁втори	-6454
▁вышел	-6455
▁групп	-6456
▁исчез	-6457
▁итогу	-6458
▁какое	-6459
▁крово	-6460
▁нефтя	-6461
▁новым	-6462
▁ослож	-6463
▁позже	-6464
▁посту	-6465
▁проде	-6466
▁равно	-6467
▁сайта	-6468
▁самое	-6469
▁связь	-6470
▁семья	-6471
▁сетей	-6472
▁соблю	-6473
▁стены	-6474
▁стиму	-6475
▁съемо	-6476
▁точки	-6477
▁трени	-6478
▁троих	-6479
▁укреп	-6480
▁упала	-6481
▁ущерб	-6482
▁штате	-6483
▁экипа	-6484
▁языка	-6485
ждается	-6486
ровании	-6487
стралий	-6488
▁iPhone	-6489
▁Анаста	-6490
▁Белого	-6491
▁Европу	-6492
▁Саудов	-6493
▁Черном	-6494
▁боевых	-6495
▁вывода	-6496
▁выстре	-6497
▁малень	-6498
▁маршру	-6499
▁машину	-6500
▁нейтра	-6501
▁нельзя	-6502
▁округа	-6503
▁пересе	-6504
▁пласти	-6505
▁победу	-6506
▁подряд	-6507
▁потреб	-6508
▁прежде	-6509
▁продаж	-6510
▁прошли	-6511
▁ракета	-6512
▁репута	-6513
▁самыми	-6514
▁сервис	-6515
▁сильно	-6516
▁сталки	-6517
▁тарифы	-6518
▁третье	-6519
▁чтении	-6520
операции	-6521
▁Издание	-6522
▁Калифор	-6523
▁Курской	-6524
▁Петрося	-6525
▁актуаль	-6526
▁вечером	-6527
▁веществ	-6528
▁вызвали	-6529
▁высокой	-6530
▁говорил	-6531
▁городов	-6532
▁девушку	-6533
▁демокра	-6534
▁капитал	-6535
▁команди	-6536
▁мировом	-6537
▁модерни	-6538
▁объедин	-6539
▁отрасли	-6540
▁падения	-6541
▁позиция	-6542
▁политик	-6543
▁полуост	-6544
▁попасть	-6545
▁разобра	-6546
▁расстре	-6547
▁средней	-6548
▁стороне	-6549
▁студент	-6550
▁темпера	-6551
▁теракта	-6552
▁фестива	-6553
▁эксперт	-6554
держивает	-6555
▁Американ	-6556
▁Например	-6557
▁Соединен	-6558
▁автомати	-6559
▁затронут	-6560
▁коллегой	-6561
▁конфликт	-6562
▁муниципа	-6563
▁накануне	-6564
▁областей	-6565
▁областях	-6566
▁обсудили	-6567
▁показали	-6568
▁полагают	-6569
▁политике	-6570
▁программ	-6571
▁продлить	-6572
▁процесса	-6573
▁соцсетях	-6574
▁уточняет	-6575
▁характер	-6576
▁Подробнее	-6577
▁Правоохра	-6578
▁Стоимость	-6579
▁выступает	-6580
▁выступают	-6581
▁директора	-6582
▁документы	-6583
▁источника	-6584
▁коммуника	-6585
▁кредитова	-6586
▁нарушение	-6587
▁ожидается	-6588
▁правильно	-6589
▁различных	-6590
▁самолетов	-6591
▁силовиков	-6592
▁сохранить	-6593
▁Виноградов	-6594
▁автомобиля	-6595
▁богатейших	-6596
▁возбуждено	-6597
▁отношениях	-6598
▁приговорил	-6599
▁проведении	-6600
▁состоялась	-6601
▁украинская	-6602
▁бизнесменов	-6603
▁журналистам	-6604
▁миллиардера	-6605
▁направления	-6606
▁оценивается	-6607
▁подробности	-6608
▁последствий	-6609
▁прокуратуры	-6610
▁сотрудникам	-6611
▁телевидении	-6612
▁американская	-6613
▁относительно	-6614
▁предлагается	-6615
▁председателя	-6616
▁представляет	-6617
▁производство	-6618
▁руководителя	-6619
▁специалистов	-6620
▁энергоотсеке	-6621
▁беспилотников	-6622
▁расследование	-6623
▁Предполагается	-6624
▁инфраструктуру	-6625
▁Соответствующий	-6626
▁ответственность	-6627
St	-6628
ly	-6629
ue	-6630
ЕН	-6631
Ку	-6632
ОК	-6633
СИ	-6634
эр	-6635
"",	-6636
ang	-6637
mer	-6638
Пре	-6639
ССР	-6640
бах	-6641
гия	-6642
гор	-6643
дку	-6644
клу	-6645
кор	-6646
орк	-6647
пок	-6648
ряс	-6649
тво	-6650
тую	-6651
фар	-6652
хии	-6653
цах	-6654
шке	-6655
▁42	-6656
▁43	-6657
▁De	-6658
▁Ex	-6659
▁Sa	-6660
▁Бы	-6661
▁Ис	-6662
▁юз	-6663
-201	-6664
-400	-6665
ries	-6666
Евро	-6667
Пред	-6668
бака	-6669
вело	-6670
выми	-6671
гани	-6672
голь	-6673
емья	-6674
енит	-6675
жные	-6676
здра	-6677
кать	-6678
мамо	-6679
нбур	-6680
несу	-6681
обще	-6682
рила	-6683
сети	-6684
сной	-6685
ссор	-6686
стры	-6687
стых	-6688
твра	-6689
тная	-6690
цлер	-6691
шева	-6692
щена	-6693
щено	-6694
▁Goo	-6695
▁Pod	-6696
▁Бан	-6697
▁Бар	-6698
▁Брю	-6699
▁ВСУ	-6700
▁ВТБ	-6701
▁Кав	-6702
▁Кем	-6703
▁Кли	-6704
▁Нур	-6705
▁Сур	-6706
▁Эль	-6707
▁дво	-6708
▁имя	-6709
▁нож	-6710
▁поя	-6711
▁рав	-6712
▁уси	-6713
▁хищ	-6714
▁эмо	-6715
верну	-6716
вушек	-6717
вшему	-6718
ждена	-6719
иться	-6720
ровая	-6721
телях	-6722
теров	-6723
тетом	-6724
ющими	-6725
▁Анге	-6726
▁Банк	-6727
▁Бори	-6728
▁Даль	-6729
▁Доку	-6730
▁Коре	-6731
▁Ники	-6732
▁СССР	-6733
▁Сама	-6734
▁Уточ	-6735
▁Эрдо	-6736
▁агра	-6737
▁агро	-6738
▁выде	-6739
▁горя	-6740
▁жену	-6741
▁изви	-6742
▁клад	-6743
▁кори	-6744
▁лока	-6745
▁мало	-6746
▁мега	-6747
▁моби	-6748
▁моря	-6749
▁отка	-6750
▁поле	-6751
▁поло	-6752
▁реша	-6753
▁сеть	-6754
▁трой	-6755
▁труд	-6756
▁чрез	-6757
▁широ	-6758
Власти	-6759
бежных	-6760
вестно	-6761
вшемся	-6762
грации	-6763
ентами	-6764
женные	-6765
зднова	-6766
контро	-6767
коснов	-6768
летних	-6769
ставки	-6770
▁Арсен	-6771
▁Дании	-6772
▁Други	-6773
▁Имамо	-6774
▁Крыму	-6775
▁Пента	-6776
▁Солов	-6777
▁Чечни	-6778
▁балан	-6779
▁балла	-6780
▁важно	-6781
▁вдвое	-6782
▁взять	-6783
▁воева	-6784
▁войне	-6785
▁вышли	-6786
▁запро	-6787
▁инфек	-6788
▁людям	-6789
▁матча	-6790
▁напря	-6791
▁ночью	-6792
▁огнем	-6793
▁отчет	-6794
▁перес	-6795
▁полно	-6796
▁потом	-6797
▁реаги	-6798
▁росту	-6799
▁спрос	-6800
▁судно	-6801
▁точно	-6802
▁усили	-6803
▁штата	-6804
▁этапа	-6805
berries	-6806
Информа	-6807
водятся	-6808
монстри	-6809
сколько	-6810
смотрен	-6811
тельная	-6812
▁Путину	-6813
▁Пушили	-6814
▁англий	-6815
▁бездом	-6816
▁вскоре	-6817
▁входит	-6818
▁газеты	-6819
▁дефици	-6820
▁завода	-6821
▁задачи	-6822
▁заняла	-6823
▁защите	-6824
▁иннова	-6825
▁камеру	-6826
▁канику	-6827
▁комфор	-6828
▁купить	-6829
▁малого	-6830
▁област	-6831
▁обмена	-6832
▁оборон	-6833
▁обстре	-6834
▁опусти	-6835
▁оружие	-6836
▁пожаре	-6837
▁провин	-6838
▁продав	-6839
▁пройти	-6840
▁реклам	-6841
▁сезона	-6842
▁сохран	-6843
▁ставок	-6844
▁ужесто	-6845
▁учетом	-6846
▁фондов	-6847
▁фунтов	-6848
▁церемо	-6849
анчестер	-6850
действие	-6851
женности	-6852
компания	-6853
министра	-6854
нических	-6855
образова	-6856
работать	-6857
хождения	-6858
▁Podcast	-6859
▁Воронеж	-6860
▁Министр	-6861
▁Овечкин	-6862
▁Площадь	-6863
▁Решение	-6864
▁беремен	-6865
▁брендов	-6866
▁будущем	-6867
▁выборах	-6868
▁выросли	-6869
▁главной	-6870
▁головой	-6871
▁девочку	-6872
▁девушек	-6873
▁добавив	-6874
▁исключи	-6875
▁исполня	-6876
▁кажется	-6877
▁компьют	-6878
▁намерен	-6879
▁насилия	-6880
▁органах	-6881
▁охвачен	-6882
▁поднима	-6883
▁подрост	-6884
▁помести	-6885
▁признан	-6886
▁пытался	-6887
▁районов	-6888
▁реанима	-6889
▁сделали	-6890
▁события	-6891
▁состоит	-6892
▁указали	-6893
▁фигуран	-6894
▁Витренко	-6895
▁Документ	-6896
▁Имамоглу	-6897
▁Свердлов	-6898
▁боевиков	-6899
▁выглядит	-6900
▁занимает	-6901
▁избежать	-6902
▁называют	-6903
▁намерены	-6904
▁откровен	-6905
▁площадке	-6906
▁пояснила	-6907
▁работода	-6908
▁редакцию	-6909
▁снижения	-6910
▁сооснова	-6911
▁стороной	-6912
▁стрельбу	-6913
▁торговли	-6914
▁угрожает	-6915
▁цитирует	-6916
Российская	-6917
льзователи	-6918
▁Екатерина	-6919
▁Лукашенко	-6920
▁Некоторые	-6921
▁авианосце	-6922
▁ближайшее	-6923
▁возглавля	-6924
▁выступили	-6925
▁городской	-6926
▁дизельное	-6927
▁занимался	-6928
▁запрещено	-6929
▁запустить	-6930
▁мощностью	-6931
▁последова	-6932
▁пострадал	-6933
▁появились	-6934
▁процедуры	-6935
▁публикует	-6936
▁россиянам	-6937
▁сообщение	-6938
▁сотрудник	-6939
▁чемпионов	-6940
▁Отечествен	-6941
▁Сообщается	-6942
▁госсекрета	-6943
▁действиями	-6944
▁зарубежных	-6945
▁злоумышлен	-6946
▁километрах	-6947
▁количества	-6948
▁обновление	-6949
▁подозрению	-6950
▁потенциаль	-6951
▁предложила	-6952
▁президенту	-6953
▁работников	-6954
▁разработки	-6955
▁разрешения	-6956
▁российскую	-6957
▁существует	-6958
▁Вашингтоном	-6959
▁Конституции	-6960
▁возвращение	-6961
▁исполнитель	-6962
▁оскорбления	-6963
▁подтвердили	-6964
▁поступившем	-6965
▁прекращении	-6966
▁собеседника	-6967
▁специалисты	-6968
▁федеральных	-6969
▁энергоотсек	-6970
▁американские	-6971
▁американским	-6972
▁департамента	-6973
▁комментариях	-6974
▁одновременно	-6975
▁опубликовала	-6976
▁опубликована	-6977
▁продемонстри	-6978
▁распоряжении	-6979
▁руководителей	-6980
▁соревнованиях	-6981
▁восстановления	-6982
▁подозреваемого	-6983
▁финансирования	-6984
▁ответственности	-6985
AR	-6986
OL	-6987
co	-6988
ct	-6989
ei	-6990
ip	-6991
ki	-6992
Ло	-6993
МД	-6994
НХ	-6995
Ни	-6996
Но	-6997
тю	-6998
ьи	-6999
эк	-7000
▁e	-7001
ams	-7002
ell	-7003
erc	-7004
gle	-7005
ill	-7006
ish	-7007
iss	-7008
omi	-7009
our	-7010
Раз	-7011
Рос	-7012
США	-7013
Сто	-7014
ани	-7015
бор	-7016
ват	-7017
вей	-7018
дал	-7019
жат	-7020
лло	-7021
лум	-7022
май	-7023
мин	-7024
мое	-7025
нив	-7026
нюк	-7027
одо	-7028
пан	-7029
сор	-7030
тон	-7031
фей	-7032
шев	-7033
шит	-7034
шоу	-7035
юсь	-7036
▁$3	-7037
▁55	-7038
▁Ba	-7039
▁CN	-7040
▁Su	-7041
▁ОС	-7042
▁Фи	-7043
▁Хи	-7044
▁Ше	-7045
▁кв	-7046
▁оч	-7047
▁фа	-7048
Если	-7049
Музы	-7050
бели	-7051
бель	-7052
бище	-7053
вета	-7054
гана	-7055
горе	-7056
груз	-7057
деть	-7058
джет	-7059
дных	-7060
енте	-7061
енту	-7062
лана	-7063
лева	-7064
ллер	-7065
лога	-7066
музы	-7067
овый	-7068
сред	-7069
стал	-7070
тейл	-7071
филь	-7072
щика	-7073
▁16-	-7074
▁400	-7075
▁Met	-7076
▁One	-7077
▁the	-7078
▁Бру	-7079
▁Вар	-7080
▁Вла	-7081
▁Кам	-7082
▁Наи	-7083
▁Пар	-7084
▁РЕН	-7085
▁Рей	-7086
▁Смо	-7087
▁вру	-7088
▁вся	-7089
▁гре	-7090
▁опо	-7091
▁ощу	-7092
▁сби	-7093
▁све	-7094
▁уве	-7095
▁уте	-7096
главы	-7097
дание	-7098
двока	-7099
ерить	-7100
жется	-7101
здрав	-7102
лежит	-7103
ленно	-7104
меров	-7105
метом	-7106
надзо	-7107
нений	-7108
праши	-7109
проду	-7110
проми	-7111
ровые	-7112
рядок	-7113
сибир	-7114
слава	-7115
спорт	-7116
стами	-7117
терна	-7118
▁Азии	-7119
▁Иван	-7120
▁Изра	-7121
▁Кара	-7122
▁Сара	-7123
▁адре	-7124
▁апел	-7125
▁ваго	-7126
▁ввел	-7127
▁ведь	-7128
▁выпи	-7129
▁гром	-7130
▁дели	-7131
▁изби	-7132
▁каби	-7133
▁коне	-7134
▁круг	-7135
▁лого	-7136
▁меда	-7137
▁меду	-7138
▁обез	-7139
▁одну	-7140
▁прим	-7141
▁путь	-7142
▁разы	-7143
▁рыно	-7144
▁сожа	-7145
▁союз	-7146
Житель	-7147
гистра	-7148
графии	-7149
енерал	-7150
ллисти	-7151
менедж	-7152
няются	-7153
призна	-7154
стреби	-7155
тологи	-7156
украин	-7157
ходили	-7158
читься	-7159
▁2018-	-7160
▁Black	-7161
▁Анали	-7162
▁Гонча	-7163
▁Джули	-7164
▁Илона	-7165
▁Китае	-7166
▁Колоб	-7167
▁Петра	-7168
▁Роман	-7169
▁Чтобы	-7170
▁актри	-7171
▁беспо	-7172
▁взаим	-7173
▁воспо	-7174
▁всему	-7175
▁выйти	-7176
▁девай	-7177
▁деста	-7178
▁едино	-7179
▁живет	-7180
▁замед	-7181
▁замет	-7182
▁земли	-7183
▁знако	-7184
▁инжен	-7185
▁клуба	-7186
▁консо	-7187
▁крови	-7188
▁матче	-7189
▁метро	-7190
▁можем	-7191
▁описа	-7192
▁планы	-7193
▁проли	-7194
▁пятер	-7195
▁разве	-7196
▁расту	-7197
▁солда	-7198
▁сопер	-7199
▁союза	-7200
▁такая	-7201
▁таком	-7202
▁трево	-7203
▁уволь	-7204
▁узнал	-7205
▁флота	-7206
▁хотел	-7207
кадемии	-7208
кетплей	-7209
шинство	-7210
▁Австра	-7211
▁Виктор	-7212
▁Догово	-7213
▁Роберт	-7214
▁Японии	-7215
▁аварии	-7216
▁анонси	-7217
▁вызвал	-7218
▁выйдет	-7219
▁выступ	-7220
▁главой	-7221
▁грузов	-7222
▁зависи	-7223
▁законе	-7224
▁закону	-7225
▁закреп	-7226
▁запись	-7227
▁застре	-7228
▁избира	-7229
▁инвали	-7230
▁логоти	-7231
▁миссии	-7232
▁напада	-7233
▁научно	-7234
▁начнут	-7235
▁объеди	-7236
▁объема	-7237
▁оплаты	-7238
▁открыл	-7239
▁отмени	-7240
▁память	-7241
▁первым	-7242
▁первых	-7243
▁поверх	-7244
▁пригро	-7245
▁приста	-7246
▁продви	-7247
▁прозра	-7248
▁режима	-7249
▁резюми	-7250
▁скорую	-7251
▁совсем	-7252
▁станут	-7253
▁фильма	-7254
▁чистой	-7255
Известия	-7256
тельству	-7257
тировать	-7258
▁Девушка	-7259
▁Татьяна	-7260
▁адвокат	-7261
▁большое	-7262
▁большую	-7263
▁будущее	-7264
▁ведущих	-7265
▁версией	-7266
▁воскрес	-7267
▁выбрать	-7268
▁действу	-7269
▁доброво	-7270
▁доходов	-7271
▁исправи	-7272
▁история	-7273
▁истреби	-7274
▁критиче	-7275
▁крупном	-7276
▁молодых	-7277
▁музыкан	-7278
▁национа	-7279
▁начался	-7280
▁обратил	-7281
▁оказать	-7282
▁остался	-7283
▁подверг	-7284
▁покупке	-7285
▁попытке	-7286
▁порядок	-7287
▁предмет	-7288
▁применя	-7289
▁продукт	-7290
▁работал	-7291
▁ранения	-7292
▁решению	-7293
▁рубежом	-7294
▁секунду	-7295
▁сериалы	-7296
▁сказано	-7297
▁сколько	-7298
▁снизить	-7299
▁сообщал	-7300
▁требует	-7301
▁удобной	-7302
▁утратой	-7303
▁флагман	-7304
▁частных	-7305
▁экспорт	-7306
▁энергии	-7307
тельность	-7308
тельствах	-7309
▁Podcasts	-7310
▁Брянской	-7311
▁Росстата	-7312
▁баллисти	-7313
▁большого	-7314
▁вещества	-7315
▁взрывное	-7316
▁водитель	-7317
▁возвраща	-7318
▁выяснили	-7319
▁голосова	-7320
▁граждане	-7321
▁давление	-7322
▁зарплаты	-7323
▁инфляции	-7324
▁компроми	-7325
▁конкурен	-7326
▁недоволь	-7327
▁обвинили	-7328
▁обвиняют	-7329
▁остаются	-7330
▁отставку	-7331
▁повысить	-7332
▁подкаста	-7333
▁подчерки	-7334
▁поставля	-7335
▁приобрет	-7336
▁прожиточ	-7337
▁родители	-7338
▁статисти	-7339
▁четверть	-7340
Московский	-7341
российские	-7342
▁Института	-7343
▁агентству	-7344
▁арестовал	-7345
▁ведомство	-7346
▁выплатить	-7347
▁дивиденды	-7348
▁категории	-7349
▁комплекса	-7350
▁контракта	-7351
▁магазинов	-7352
▁множество	-7353
▁население	-7354
▁находился	-7355
▁начальник	-7356
▁обратился	-7357
▁обсуждали	-7358
▁перспекти	-7359
▁поддержал	-7360
▁подписали	-7361
▁положения	-7362
▁последних	-7363
▁предостав	-7364
▁преподава	-7365
▁принимать	-7366
▁процентах	-7367
▁регионами	-7368
▁регулятор	-7369
▁россиянин	-7370
▁связанные	-7371
▁стратегии	-7372
блокировать	-7373
▁Вашингтона	-7374
▁Сотрудники	-7375
▁аналитиков	-7376
▁арестовали	-7377
▁изначально	-7378
▁иноагентом	-7379
▁контактной	-7380
▁недостаточ	-7381
▁подготовки	-7382
▁преследова	-7383
▁российское	-7384
▁состояться	-7385
▁украинском	-7386
▁установили	-7387
▁Wildberries	-7388
▁Действующий	-7389
▁Екатеринбур	-7390
▁действовать	-7391
▁десятилетия	-7392
▁значительно	-7393
▁медицинских	-7394
▁организация	-7395
▁потребовала	-7396
▁предположил	-7397
▁руководства	-7398
▁гражданского	-7399
▁двустороннюю	-7400
▁национальной	-7401
▁предупредили	-7402
▁предусмотрен	-7403
▁причастности	-7404
▁собственному	-7405
▁раскритиковал	-7406
▁предусматривает	-7407
1-	-7408
21	-7409
40	-7410
90	-7411
AI	-7412
OS	-7413
ai	-7414
ky	-7415
me	-7416
og	-7417
Ба	-7418
Бе	-7419
ЗО	-7420
ПИ	-7421
ПЧ	-7422
Па	-7423
Са	-7424
Ты	-7425
жо	-7426
нт	-7427
тр	-7428
"".	-7429
ive	-7430
man	-7431
ord	-7432
org	-7433
Кра	-7434
МВД	-7435
Нью	-7436
СМД	-7437
Фон	-7438
Циф	-7439
Что	-7440
бай	-7441
вов	-7442
дже	-7443
дму	-7444
емы	-7445
еро	-7446
жая	-7447
жеб	-7448
йко	-7449
ксе	-7450
кур	-7451
лию	-7452
мок	-7453
мут	-7454
ноп	-7455
нят	-7456
ряз	-7457
сия	-7458
тке	-7459
тур	-7460
хоз	-7461
чли	-7462
чти	-7463
шан	-7464
шко	-7465
щик	-7466
ъем	-7467
▁46	-7468
▁Мэ	-7469
▁Пх	-7470
▁Ры	-7471
▁сю	-7472
▁шу	-7473
aceX	-7474
ment	-7475
Банк	-7476
Боль	-7477
акци	-7478
брав	-7479
вами	-7480
вард	-7481
всех	-7482
гоме	-7483
гонь	-7484
дная	-7485
дьми	-7486
енье	-7487
комо	-7488
мена	-7489
нете	-7490
няли	-7491
орги	-7492
плат	-7493
пуск	-7494
реда	-7495
рота	-7496
сист	-7497
слан	-7498
стую	-7499
тинг	-7500
цева	-7501
чкой	-7502
щина	-7503
энер	-7504
язви	-7505
▁4,5	-7506
▁7,5	-7507
▁New	-7508
▁Sun	-7509
▁Арм	-7510
▁Без	-7511
▁ВМФ	-7512
▁Зем	-7513
▁Оба	-7514
▁Пол	-7515
▁Рез	-7516
▁Род	-7517
▁Фин	-7518
▁Эта	-7519
▁вен	-7520
▁гри	-7521
▁игр	-7522
▁изо	-7523
▁ина	-7524
▁ист	-7525
▁май	-7526
▁мэр	-7527
▁опи	-7528
▁опы	-7529
▁охо	-7530
▁пак	-7531
▁пау	-7532
▁пой	-7533
▁рок	-7534
▁рух	-7535
▁туа	-7536
▁чеш	-7537
▁шаг	-7538
iaomi	-7539
благо	-7540
вален	-7541
ворот	-7542
вятся	-7543
долго	-7544
енных	-7545
ентам	-7546
запре	-7547
класс	-7548
креди	-7549
манда	-7550
нести	-7551
нутся	-7552
овала	-7553
очень	-7554
плекс	-7555
преде	-7556
ровка	-7557
стеро	-7558
тамба	-7559
хозяй	-7560
ционе	-7561
▁2026	-7562
▁Гага	-7563
▁Голу	-7564
▁Дени	-7565
▁Лиги	-7566
▁Пара	-7567
▁Сред	-7568
▁Сток	-7569
▁Юлия	-7570
▁атом	-7571
▁бюро	-7572
▁верх	-7573
▁вещи	-7574
▁воды	-7575
▁воло	-7576
▁грам	-7577
▁дать	-7578
▁дыха	-7579
▁есте	-7580
▁зака	-7581
▁замо	-7582
▁куда	-7583
▁кури	-7584
▁лиги	-7585
▁миру	-7586
▁напи	-7587
▁неве	-7588
▁пило	-7589
▁пожи	-7590
▁риск	-7591
▁селе	-7592
▁твор	-7593
▁угле	-7594
▁учен	-7595
▁факт	-7596
▁фами	-7597
▁целе	-7598
▁экра	-7599
▁япон	-7600
РУСАДА	-7601
альной	-7602
анкцио	-7603
ванием	-7604
вающих	-7605
дивиду	-7606
енской	-7607
ждений	-7608
ленная	-7609
лизова	-7610
льника	-7611
ляется	-7612
магоме	-7613
метров	-7614
ования	-7615
тивное	-7616
чность	-7617
▁2010-	-7618
▁Более	-7619
▁Брази	-7620
▁Воору	-7621
▁Мария	-7622
▁Участ	-7623
▁Чехии	-7624
▁актер	-7625
▁акцию	-7626
▁барре	-7627
▁блоки	-7628
▁бренд	-7629
▁вакци	-7630
▁взгля	-7631
▁видит	-7632
▁выбро	-7633
▁вызов	-7634
▁высла	-7635
▁гаран	-7636
▁дерев	-7637
▁дорог	-7638
▁думаю	-7639
▁живут	-7640
▁закуп	-7641
▁затра	-7642
▁зерка	-7643
▁каким	-7644
▁каких	-7645
▁концу	-7646
▁косми	-7647
▁костю	-7648
▁красо	-7649
▁матер	-7650
▁машин	-7651
▁минус	-7652
▁наших	-7653
▁оправ	-7654
▁оформ	-7655
▁перви	-7656
▁перен	-7657
▁плохо	-7658
▁покры	-7659
▁полез	-7660
▁послу	-7661
▁прину	-7662
▁приро	-7663
▁резер	-7664
▁риска	-7665
▁сверх	-7666
▁семье	-7667
▁серии	-7668
▁смени	-7669
▁сопри	-7670
▁среды	-7671
▁срока	-7672
▁стрем	-7673
▁сувер	-7674
▁сумма	-7675
▁суток	-7676
▁табли	-7677
▁телеф	-7678
▁форме	-7679
▁хокке	-7680
▁честь	-7681
комился	-7682
ментами	-7683
минации	-7684
ставила	-7685
стантин	-7686
тельную	-7687
ционную	-7688
▁Google	-7689
▁Ангела	-7690
▁Аравии	-7691
▁Аслана	-7692
▁Атамба	-7693
▁Второй	-7694
▁Генера	-7695
▁Кобзев	-7696
▁активы	-7697
▁аренды	-7698
▁беседе	-7699
▁группи	-7700
▁дохода	-7701
▁жениха	-7702
▁занять	-7703
▁золото	-7704
▁зрения	-7705
▁канале	-7706
▁кардио	-7707
▁крайне	-7708
▁людьми	-7709
▁мессен	-7710
▁местах	-7711
▁мусора	-7712
▁объект	-7713
▁певицы	-7714
▁первая	-7715
▁платье	-7716
▁победи	-7717
▁победы	-7718
▁подать	-7719
▁похожи	-7720
▁препят	-7721
▁принят	-7722
▁разные	-7723
▁служеб	-7724
▁смогла	-7725
▁такими	-7726
▁тенден	-7727
▁травма	-7728
▁травмы	-7729
▁числен	-7730
ственное	-7731
ствующее	-7732
тические	-7733
тический	-7734
ционными	-7735
▁Алексея	-7736
▁Минздра	-7737
▁Пушилин	-7738
▁Разбира	-7739
▁Саратов	-7740
▁вариант	-7741
▁ведущий	-7742
▁воспита	-7743
▁востоке	-7744
▁генерал	-7745
▁голосов	-7746
▁границу	-7747
▁зависит	-7748
▁захорон	-7749
▁клинике	-7750
▁комнату	-7751
▁крупные	-7752
▁мальчик	-7753
▁местные	-7754
▁местный	-7755
▁наиболь	-7756
▁никаких	-7757
▁объекты	-7758
▁падение	-7759
▁передал	-7760
▁подарки	-7761
▁покупки	-7762
▁провока	-7763
▁прокуро	-7764
▁пунктах	-7765
▁рабочих	-7766
▁рекламы	-7767
▁сильнее	-7768
▁системе	-7769
▁сказать	-7770
▁соцсети	-7771
▁тарифов	-7772
▁техниче	-7773
▁указано	-7774
▁футболи	-7775
Нафтогаза	-7776
промышлен	-7777
сторонней	-7778
▁Автомоби	-7779
▁Мосбиржи	-7780
▁Мошкович	-7781
▁Несмотря	-7782
▁Специали	-7783
▁Стокголь	-7784
▁возраста	-7785
▁десятков	-7786
▁должност	-7787
▁заключен	-7788
▁здоровью	-7789
▁значения	-7790
▁зрителей	-7791
▁кладбище	-7792
▁народной	-7793
▁началось	-7794
▁немецких	-7795
▁новостей	-7796
▁обеспоко	-7797
▁обоснова	-7798
▁обратили	-7799
▁опроверг	-7800
▁передали	-7801
▁позволят	-7802
▁поставки	-7803
▁появятся	-7804
▁привлечь	-7805
▁принятия	-7806
▁прогнози	-7807
▁проходят	-7808
▁размести	-7809
▁ребенком	-7810
▁сервисов	-7811
▁смартфон	-7812
▁совершен	-7813
▁совершил	-7814
▁сообщают	-7815
▁стрельбы	-7816
▁торговле	-7817
косновения	-7818
ложительно	-7819
▁Антоненко	-7820
▁Мошковича	-7821
▁Нурмагоме	-7822
▁абсолютно	-7823
▁австралий	-7824
▁взорвался	-7825
▁запретили	-7826
▁заявлении	-7827
▁импортных	-7828
▁имущества	-7829
▁индустрии	-7830
▁искусства	-7831
▁испытание	-7832
▁недопусти	-7833
▁обвинение	-7834
▁объяснили	-7835
▁остальных	-7836
▁останется	-7837
▁отправили	-7838
▁положение	-7839
▁помещения	-7840
▁правозащи	-7841
▁празднова	-7842
▁предотвра	-7843
▁продление	-7844
▁следующей	-7845
▁случилось	-7846
▁сократить	-7847
▁сообщений	-7848
▁характери	-7849
▁чемпионка	-7850
▁эквивален	-7851
▁Константин	-7852
▁Российские	-7853
▁Российский	-7854
▁Саудовской	-7855
▁ассоциации	-7856
▁владельцев	-7857
▁директоров	-7858
▁достижения	-7859
▁журналисты	-7860
▁	-7861
о	-7862
е	-7863
а	-7864
и	-7865
н	-7866
т	-7867
с	-7868
р	-7869
в	-7870
л	-7871
к	-7872
д	-7873
м	-7874
п	-7875
у	-7876
я	-7877
ы	-7878
г	-7879
з	-7880
б	-7881
,	-7882
ь	-7883
й	-7884
ч	-7885
.	-7886
х	-7887
ж	-7888
ц	-7889
ю	-7890
ш	-7891
щ	-7892
«	-7893
»	-7894
ф	-7895
П	-7896
"	-7897
С	-7898
В	-7899
э	-7900
0	-7901
2	-7902
Р	-7903
1	-7904
-	-7905
К	-7906
e	-7907
О	-7908
М	-7909
А	-7910
—	-7911
o	-7912
a	-7913
r	-7914
Т	-7915
Д	-7916
Н	-7917
i	-7918
s	-7919
И	-7920
5	-7921
У	-7922
Б	-7923
t	-7924
n	-7925
Г	-7926
3	-7927
(	-7928
)	-7929
l	-7930
4	-7931
9	-7932
Л	-7933
З	-7934
Е	-7935
Ф	-7936
8	-7937
u	-7938
6	-7939
Ш	-7940
b	-7941
A	-7942
ъ	-7943
:	-7944
m	-7945
7	-7946
c	-7947
T	-7948
g	-7949
Э	-7950
d	-7951
F	-7952
S	-7953
h	-7954
Ч	-7955
I	-7956
y	-7957
p	-7958
D	-7959
R	-7960
M	-7961
P	-7962
B	-7963
Х	-7964
C	-7965
%	-7966
G	-7967
k	-7968
W	-7969
Ц	-7970
Я	-7971
w	-7972
N	-7973
O	-7974
?	-7975
Ж	-7976
f	-7977
L	-7978
E	-7979
v	-7980
Ю	-7981
📸	-7982
H	-7983
Y	-7984
/	-7985
x	-7986
$	-7987
U	-7988
X	-7989
!	-7990
@	-7991
J	-7992
V	-7993
•	-7994
K	-7995
*	-7996
